const unsigned char model_int8_vela_tflite[] = {
  0x20, 0x00, 0x00, 0x00, 0x54, 0x46, 0x4c, 0x33, 0x00, 0x00, 0x00, 0x00, 
  0x00, 0x00, 0x12, 0x00, 0x1c, 0x00, 0x18, 0x00, 0x14, 0x00, 0x10, 0x00, 
  0x0c, 0x00, 0x08, 0x00, 0x00, 0x00, 0x04, 0x00, 0x12, 0x00, 0x00, 0x00, 
  0x18, 0x00, 0x00, 0x00, 0xe8, 0x00, 0x00, 0x00, 0x18, 0x0b, 0x00, 0x00, 
  0x68, 0x08, 0x00, 0x00, 0x2c, 0x0b, 0x00, 0x00, 0x03, 0x00, 0x00, 0x00, 
  0x05, 0x00, 0x00, 0x00, 0xac, 0x00, 0x00, 0x00, 0x7c, 0x00, 0x00, 0x00, 
  0x54, 0x00, 0x00, 0x00, 0x30, 0x00, 0x00, 0x00, 0x04, 0x00, 0x00, 0x00, 
  0x70, 0xff, 0xff, 0xff, 0x07, 0x00, 0x00, 0x00, 0x04, 0x00, 0x00, 0x00, 
  0x17, 0x00, 0x00, 0x00, 0x4f, 0x66, 0x66, 0x6c, 0x69, 0x6e, 0x65, 0x4d, 
  0x65, 0x6d, 0x6f, 0x72, 0x79, 0x41, 0x6c, 0x6c, 0x6f, 0x63, 0x61, 0x74, 
  0x69, 0x6f, 0x6e, 0x00, 0x98, 0xff, 0xff, 0xff, 0x06, 0x00, 0x00, 0x00, 
  0x04, 0x00, 0x00, 0x00, 0x0c, 0x00, 0x00, 0x00, 0x76, 0x65, 0x6c, 0x61, 
  0x5f, 0x76, 0x65, 0x72, 0x73, 0x69, 0x6f, 0x6e, 0x00, 0x00, 0x00, 0x00, 
  0xb8, 0xff, 0xff, 0xff, 0x05, 0x00, 0x00, 0x00, 0x04, 0x00, 0x00, 0x00, 
  0x13, 0x00, 0x00, 0x00, 0x43, 0x4f, 0x4e, 0x56, 0x45, 0x52, 0x53, 0x49, 
  0x4f, 0x4e, 0x5f, 0x4d, 0x45, 0x54, 0x41, 0x44, 0x41, 0x54, 0x41, 0x00, 
  0xdc, 0xff, 0xff, 0xff, 0x04, 0x00, 0x00, 0x00, 0x04, 0x00, 0x00, 0x00, 
  0x13, 0x00, 0x00, 0x00, 0x6d, 0x69, 0x6e, 0x5f, 0x72, 0x75, 0x6e, 0x74, 
  0x69, 0x6d, 0x65, 0x5f, 0x76, 0x65, 0x72, 0x73, 0x69, 0x6f, 0x6e, 0x00, 
  0x08, 0x00, 0x0c, 0x00, 0x08, 0x00, 0x04, 0x00, 0x08, 0x00, 0x00, 0x00, 
  0x03, 0x00, 0x00, 0x00, 0x04, 0x00, 0x00, 0x00, 0x13, 0x00, 0x00, 0x00, 
  0x6d, 0x69, 0x6e, 0x5f, 0x72, 0x75, 0x6e, 0x74, 0x69, 0x6d, 0x65, 0x5f, 
  0x76, 0x65, 0x72, 0x73, 0x69, 0x6f, 0x6e, 0x00, 0x08, 0x00, 0x00, 0x00, 
  0x80, 0x07, 0x00, 0x00, 0x7c, 0x05, 0x00, 0x00, 0x18, 0x01, 0x00, 0x00, 
  0xf4, 0x00, 0x00, 0x00, 0xd0, 0x00, 0x00, 0x00, 0x5c, 0x00, 0x00, 0x00, 
  0x38, 0x00, 0x00, 0x00, 0x04, 0x00, 0x00, 0x00, 0xa6, 0xfa, 0xff, 0xff, 
  0x04, 0x00, 0x00, 0x00, 0x24, 0x00, 0x00, 0x00, 0x00, 0x00, 0x00, 0x00, 
  0x01, 0x00, 0x00, 0x00, 0x06, 0x00, 0x00, 0x00, 0x10, 0x00, 0x00, 0x00, 
  0xff, 0xff, 0xff, 0xff, 0xff, 0xff, 0xff, 0xff, 0x00, 0x00, 0x00, 0x00, 
  0x00, 0x00, 0x00, 0x00, 0x00, 0x00, 0x00, 0x00, 0xd6, 0xfa, 0xff, 0xff, 
  0x04, 0x00, 0x00, 0x00, 0x05, 0x00, 0x00, 0x00, 0x34, 0x2e, 0x33, 0x2e, 
  0x30, 0x00, 0x00, 0x00, 0x00, 0x00, 0x00, 0x00, 0x00, 0x00, 0x00, 0x00, 
  0x00, 0x00, 0x00, 0x00, 0xf6, 0xfa, 0xff, 0xff, 0x04, 0x00, 0x00, 0x00, 
  0x60, 0x00, 0x00, 0x00, 0x0c, 0x00, 0x00, 0x00, 0x08, 0x00, 0x0e, 0x00, 
  0x08, 0x00, 0x04, 0x00, 0x08, 0x00, 0x00, 0x00, 0x10, 0x00, 0x00, 0x00, 
  0x28, 0x00, 0x00, 0x00, 0x00, 0x00, 0x06, 0x00, 0x08, 0x00, 0x04, 0x00, 
  0x06, 0x00, 0x00, 0x00, 0x04, 0x00, 0x00, 0x00, 0x01, 0x00, 0x00, 0x00, 
  0xeb, 0x03, 0x00, 0x00, 0x0c, 0x00, 0x18, 0x00, 0x14, 0x00, 0x10, 0x00, 
  0x0c, 0x00, 0x04, 0x00, 0x0c, 0x00, 0x00, 0x00, 0x01, 0xd8, 0x1b, 0x76, 
  0x3d, 0x45, 0x75, 0x1e, 0x02, 0x00, 0x00, 0x00, 0x02, 0x00, 0x00, 0x00, 
  0x04, 0x00, 0x00, 0x00, 0x06, 0x00, 0x00, 0x00, 0x32, 0x2e, 0x31, 0x37, 
  0x2e, 0x30, 0x00, 0x00, 0x00, 0x00, 0x00, 0x00, 0x66, 0xfb, 0xff, 0xff, 
  0x04, 0x00, 0x00, 0x00, 0x10, 0x00, 0x00, 0x00, 0x00, 0x00, 0x00, 0x00, 
  0x00, 0x00, 0x00, 0x00, 0x00, 0x00, 0x00, 0x00, 0x00, 0x00, 0x00, 0x00, 
  0x00, 0x00, 0x00, 0x00, 0x86, 0xfb, 0xff, 0xff, 0x04, 0x00, 0x00, 0x00, 
  0x10, 0x00, 0x00, 0x00, 0x31, 0x2e, 0x31, 0x34, 0x2e, 0x30, 0x00, 0x00, 
  0x00, 0x00, 0x00, 0x00, 0x00, 0x00, 0x00, 0x00, 0x00, 0x00, 0x00, 0x00, 
  0xa6, 0xfb, 0xff, 0xff, 0x04, 0x00, 0x00, 0x00, 0x40, 0x04, 0x00, 0x00, 
  0x00, 0x00, 0x00, 0x00, 0x00, 0x00, 0x00, 0x00, 0x00, 0x00, 0x00, 0x00, 
  0x00, 0x00, 0x00, 0x00, 0x00, 0x00, 0x00, 0x00, 0x00, 0x00, 0x00, 0x00, 
  0x00, 0x00, 0x00, 0x00, 0x00, 0x00, 0x00, 0x00, 0x00, 0x00, 0x00, 0x00, 
  0x00, 0x00, 0x00, 0x00, 0x00, 0x00, 0x00, 0x00, 0x00, 0x00, 0x00, 0x00, 
  0x00, 0x00, 0x00, 0x00, 0x00, 0x00, 0x00, 0x00, 0x00, 0x00, 0x00, 0x00, 
  0x00, 0x00, 0x00, 0x00, 0x00, 0x00, 0x00, 0x00, 0x00, 0x00, 0x00, 0x00, 
  0x00, 0x00, 0x00, 0x00, 0x00, 0x00, 0x00, 0x00, 0x00, 0x00, 0x00, 0x00, 
  0x00, 0x00, 0x00, 0x00, 0x00, 0x00, 0x00, 0x00, 0x00, 0x00, 0x00, 0x00, 
  0x00, 0x00, 0x00, 0x00, 0x00, 0x00, 0x00, 0x00, 0x00, 0x00, 0x00, 0x00, 
  0x00, 0x00, 0x00, 0x00, 0x00, 0x00, 0x00, 0x00, 0x00, 0x00, 0x00, 0x00, 
  0x00, 0x00, 0x00, 0x00, 0x00, 0x00, 0x00, 0x00, 0x00, 0x00, 0x00, 0x00, 
  0x00, 0x00, 0x00, 0x00, 0x00, 0x00, 0x00, 0x00, 0x00, 0x00, 0x00, 0x00, 
  0x00, 0x00, 0x00, 0x00, 0x00, 0x00, 0x00, 0x00, 0x00, 0x00, 0x00, 0x00, 
  0x00, 0x00, 0x00, 0x00, 0x00, 0x00, 0x00, 0x00, 0x00, 0x00, 0x00, 0x00, 
  0x00, 0x00, 0x00, 0x00, 0x00, 0x00, 0x00, 0x00, 0x00, 0x00, 0x00, 0x00, 
  0x00, 0x00, 0x00, 0x00, 0x00, 0x00, 0x00, 0x00, 0x00, 0x00, 0x00, 0x00, 
  0x00, 0x00, 0x00, 0x00, 0x00, 0x00, 0x00, 0x00, 0x00, 0x00, 0x00, 0x00, 
  0x00, 0x00, 0x00, 0x00, 0x00, 0x00, 0x00, 0x00, 0x00, 0x00, 0x00, 0x00, 
  0x00, 0x00, 0x00, 0x00, 0x00, 0x00, 0x00, 0x00, 0x00, 0x00, 0x00, 0x00, 
  0x00, 0x00, 0x00, 0x00, 0x00, 0x00, 0x00, 0x00, 0x00, 0x00, 0x00, 0x00, 
  0x00, 0x00, 0x00, 0x00, 0x00, 0x00, 0x00, 0x00, 0x00, 0x00, 0x00, 0x00, 
  0x00, 0x00, 0x00, 0x00, 0x00, 0x00, 0x00, 0x00, 0x00, 0x00, 0x00, 0x00, 
  0x00, 0x00, 0x00, 0x00, 0x00, 0x00, 0x00, 0x00, 0x00, 0x00, 0x00, 0x00, 
  0x00, 0x00, 0x00, 0x00, 0x00, 0x00, 0x00, 0x00, 0x00, 0x00, 0x00, 0x00, 
  0x00, 0x00, 0x00, 0x00, 0x00, 0x00, 0x00, 0x00, 0x00, 0x00, 0x00, 0x00, 
  0x00, 0x00, 0x00, 0x00, 0x00, 0x00, 0x00, 0x00, 0x00, 0x00, 0x00, 0x00, 
  0x00, 0x00, 0x00, 0x00, 0x00, 0x00, 0x00, 0x00, 0x00, 0x00, 0x00, 0x00, 
  0x00, 0x00, 0x00, 0x00, 0x00, 0x00, 0x00, 0x00, 0x00, 0x00, 0x00, 0x00, 
  0xda, 0xeb, 0xff, 0xff, 0xff, 0x1f, 0x42, 0xd1, 0x5b, 0x26, 0x00, 0x00, 
  0x00, 0x00, 0x00, 0xca, 0x85, 0x7d, 0x40, 0x29, 0xce, 0xfb, 0xff, 0xff, 
  0xff, 0x33, 0x47, 0xb7, 0x42, 0x25, 0x00, 0x00, 0x00, 0x00, 0x00, 0x1c, 
  0x9b, 0xcf, 0x4e, 0x26, 0x00, 0x00, 0x00, 0x00, 0x00, 0x70, 0x8e, 0xbc, 
  0x79, 0x26, 0x52, 0x02, 0x00, 0x00, 0x00, 0x83, 0x9a, 0x59, 0x6d, 0x26, 
  0x00, 0x00, 0x00, 0x00, 0x00, 0x0b, 0xee, 0x75, 0x42, 0x2a, 0x00, 0x00, 
  0x00, 0x00, 0x00, 0xb9, 0x87, 0x80, 0x52, 0x2e, 0x00, 0x00, 0x00, 0x00, 
  0x00, 0x09, 0x5d, 0xe6, 0x51, 0x26, 0x00, 0x00, 0x00, 0x00, 0x00, 0xc0, 
  0xed, 0xdc, 0x44, 0x27, 0x45, 0xd8, 0xff, 0xff, 0xff, 0xdb, 0x30, 0x35, 
  0x4f, 0x26, 0x00, 0x00, 0x00, 0x00, 0x00, 0xf8, 0x38, 0x95, 0x68, 0x2a, 
  0x00, 0x00, 0x00, 0x00, 0x00, 0xdb, 0x9b, 0x23, 0x77, 0x28, 0x00, 0x00, 
  0x00, 0x00, 0x00, 0xd4, 0xbf, 0x6d, 0x5c, 0x27, 0x00, 0x00, 0x00, 0x00, 
  0x00, 0x45, 0x34, 0xa9, 0x68, 0x26, 0x00, 0x00, 0x00, 0x00, 0x00, 0x96, 
  0x2d, 0x6e, 0x4d, 0x26, 0x7b, 0x00, 0xdc, 0x1f, 0xfc, 0xef, 0x0f, 0xf0, 
  0x5f, 0x42, 0xf8, 0xff, 0xff, 0xff, 0xf0, 0x0f, 0xf0, 0xff, 0xff, 0xff, 
  0xff, 0xff, 0x0f, 0xf0, 0xff, 0xff, 0xff, 0xff, 0xff, 0xff, 0xff, 0xff, 
  0xc2, 0x07, 0x00, 0x00, 0x00, 0xae, 0x0a, 0xc6, 0x45, 0x24, 0xac, 0xfe, 
  0xff, 0xff, 0xff, 0xa3, 0x80, 0x47, 0x4b, 0x26, 0x27, 0xc9, 0xff, 0xff, 
  0xff, 0x38, 0xf9, 0x85, 0x56, 0x26, 0x00, 0x00, 0x00, 0x00, 0x00, 0x57, 
  0xbe, 0x57, 0x46, 0x26, 0x38, 0x12, 0x00, 0x00, 0x00, 0x0c, 0xa6, 0x30, 
  0x49, 0x26, 0x97, 0xff, 0xff, 0xff, 0xff, 0x8e, 0xc7, 0x49, 0x4b, 0x26, 
  0xa5, 0xda, 0xff, 0xff, 0xff, 0x7e, 0x69, 0x05, 0x48, 0x26, 0xcb, 0xfd, 
  0xff, 0xff, 0xff, 0x17, 0x6a, 0x30, 0x49, 0x26, 0x6d, 0x12, 0x00, 0x00, 
  0x00, 0x9b, 0x13, 0x42, 0x54, 0x26, 0x00, 0x00, 0x00, 0x00, 0x00, 0x6d, 
  0x63, 0x45, 0x48, 0x26, 0x8c, 0xff, 0xff, 0xff, 0xff, 0x7e, 0xa7, 0x20, 
  0x44, 0x26, 0x00, 0x00, 0x00, 0x00, 0x00, 0x78, 0x2a, 0xb8, 0x4a, 0x26, 
  0x15, 0x12, 0x00, 0x00, 0x00, 0x07, 0x7d, 0x99, 0x49, 0x26, 0x00, 0x00, 
  0x00, 0x00, 0x00, 0x54, 0x46, 0x4f, 0x4b, 0x26, 0xd5, 0xc8, 0xff, 0xff, 
  0xff, 0x78, 0xe3, 0x36, 0x47, 0x26, 0x6c, 0xf5, 0xff, 0xff, 0xff, 0x8e, 
  0xaa, 0x78, 0x47, 0x26, 0xf0, 0x03, 0x5c, 0x01, 0x0c, 0x00, 0x55, 0x11, 
  0x18, 0x21, 0x34, 0x5a, 0x26, 0x20, 0x00, 0x10, 0xea, 0x7d, 0xfa, 0xd7, 
  0x2f, 0x73, 0x77, 0x00, 0x00, 0xfc, 0x6f, 0x82, 0x93, 0x6a, 0x66, 0xd0, 
  0x61, 0xb9, 0x89, 0x2c, 0xc5, 0xf0, 0xbf, 0xe3, 0xe9, 0x00, 0x80, 0xba, 
  0xa9, 0x83, 0xb2, 0xc0, 0xef, 0xa9, 0x00, 0x00, 0xb4, 0x8a, 0xc1, 0x93, 
  0x5d, 0xfd, 0xb6, 0x93, 0x1f, 0x98, 0xe0, 0xcd, 0x54, 0x10, 0xfc, 0x04, 
  0x00, 0x10, 0x69, 0x36, 0x70, 0xcf, 0xe1, 0x01, 0x3c, 0x07, 0x00, 0x43, 
  0x05, 0xfd, 0x1a, 0x09, 0x3f, 0x19, 0x03, 0x96, 0xbb, 0xd5, 0x24, 0x16, 
  0xc3, 0x45, 0x8a, 0x00, 0x40, 0xa3, 0xad, 0xa5, 0x9c, 0xc6, 0xd1, 0xdb, 
  0x1a, 0x00, 0x2d, 0xbb, 0x07, 0x32, 0xfd, 0xc3, 0x10, 0x96, 0xe5, 0x42, 
  0xc6, 0x43, 0x7b, 0xeb, 0xa8, 0x3a, 0x00, 0xc0, 0xdf, 0xda, 0x6c, 0x3a, 
  0xec, 0xf9, 0x9e, 0x04, 0xf0, 0xee, 0x7f, 0xec, 0x70, 0xe6, 0x6c, 0xf4, 
  0x99, 0xff, 0xef, 0xd5, 0xbf, 0x2c, 0x5f, 0xfc, 0xd1, 0xfa, 0xff, 0xff, 
  0xff, 0xff, 0xff, 0xff, 0xff, 0xff, 0xff, 0xff, 0xff, 0xff, 0xff, 0x0f, 
  0x30, 0x00, 0xc0, 0x01, 0x80, 0x04, 0xfa, 0x00, 0x07, 0x00, 0x8c, 0xf9, 
  0xdb, 0x20, 0xb2, 0x9a, 0x46, 0xfb, 0x01, 0x40, 0xf8, 0x56, 0x82, 0x39, 
  0x9b, 0xc2, 0x56, 0x0a, 0x00, 0x5e, 0x73, 0xfb, 0xcb, 0x6f, 0x65, 0x6f, 
  0x84, 0x6a, 0xa9, 0x54, 0xf8, 0x9f, 0x29, 0x77, 0x22, 0x00, 0x40, 0x19, 
  0x13, 0xde, 0x0c, 0x35, 0xe6, 0x2b, 0x0f, 0x00, 0x86, 0x6a, 0xf0, 0x9a, 
  0x2b, 0xfb, 0x45, 0x3d, 0xb3, 0x4d, 0x57, 0x0d, 0x10, 0x83, 0xfa, 0xe1, 
  0x01, 0x60, 0x0c, 0xcf, 0xcc, 0x10, 0x85, 0x1f, 0x00, 0x04, 0x00, 0x7c, 
  0x5a, 0x10, 0x2c, 0xf0, 0x62, 0xb2, 0xf1, 0xe4, 0xe2, 0x07, 0xf9, 0x19, 
  0xd5, 0x9f, 0xe6, 0x00, 0x80, 0x02, 0x8e, 0xfb, 0x6a, 0xe0, 0xf8, 0x25, 
  0x10, 0x00, 0x16, 0x4e, 0x0b, 0x57, 0x83, 0xb0, 0x33, 0x1b, 0xd8, 0xeb, 
  0x22, 0x50, 0xf9, 0xd7, 0x8d, 0xd1, 0x01, 0xe0, 0xbd, 0x96, 0xd3, 0xd4, 
  0x56, 0x5d, 0xfb, 0x15, 0x00, 0x60, 0x58, 0x13, 0x77, 0x63, 0x7f, 0x43, 
  0x8c, 0xb3, 0xdd, 0xe7, 0x52, 0x6c, 0x23, 0x06, 0x00, 0x38, 0xff, 0xff, 
  0x40, 0x00, 0xf8, 0xff, 0xff, 0xff, 0xff, 0xff, 0xff, 0xff, 0xff, 0xff, 
  0xff, 0xff, 0xff, 0xff, 0xdd, 0xf1, 0xff, 0xff, 0xff, 0x56, 0xd5, 0x8e, 
  0x73, 0x24, 0x00, 0x00, 0x00, 0x00, 0x00, 0x00, 0x71, 0x00, 0x5c, 0xe1, 
  0x2c, 0xe1, 0xef, 0x73, 0x03, 0xc3, 0x22, 0xf2, 0xe1, 0xb1, 0x61, 0xd1, 
  0x70, 0x40, 0x20, 0x00, 0xf0, 0xff, 0x1f, 0xad, 0x78, 0x24, 0x90, 0x6c, 
  0x00, 0xf0, 0xff, 0x3b, 0x05, 0x00, 0x00, 0x03, 0x00, 0x9c, 0xff, 0x7f, 
  0xff, 0xc3, 0xff, 0xff, 0xff, 0xff, 0xff, 0xff, 0x00, 0x00, 0x00, 0x00, 
  0x00, 0x00, 0x00, 0x00, 0x00, 0x00, 0x00, 0x00, 0x00, 0x00, 0x06, 0x00, 
  0x08, 0x00, 0x04, 0x00, 0x06, 0x00, 0x00, 0x00, 0x04, 0x00, 0x00, 0x00, 
  0xf0, 0x01, 0x00, 0x00, 0x43, 0x4f, 0x50, 0x31, 0x01, 0x00, 0x10, 0x00, 
  0x07, 0x18, 0x00, 0x00, 0x00, 0x00, 0x06, 0x10, 0x05, 0x00, 0x00, 0x00, 
  0x05, 0x00, 0x00, 0x00, 0x05, 0x00, 0x00, 0x00, 0x02, 0x00, 0x74, 0x00, 
  0x0f, 0x01, 0x01, 0x00, 0x00, 0x40, 0x00, 0x00, 0x00, 0x00, 0x00, 0x00, 
  0x01, 0x40, 0x00, 0x00, 0x00, 0x00, 0x00, 0x00, 0x02, 0x40, 0x00, 0x00, 
  0x00, 0x00, 0x00, 0x00, 0x03, 0x40, 0x00, 0x00, 0x00, 0x00, 0x00, 0x00, 
  0x0b, 0x01, 0x00, 0x00, 0x0c, 0x01, 0x00, 0x00, 0x0a, 0x01, 0x00, 0x00, 
  0x04, 0x01, 0x00, 0x00, 0x06, 0x40, 0x00, 0x00, 0x01, 0x00, 0x00, 0x00, 
  0x05, 0x40, 0x00, 0x00, 0x01, 0x00, 0x00, 0x00, 0x04, 0x40, 0x00, 0x00, 
  0x01, 0x00, 0x00, 0x00, 0x09, 0x01, 0x80, 0xff, 0x05, 0x01, 0x01, 0x00, 
  0x07, 0x01, 0x00, 0x00, 0x00, 0x01, 0x00, 0x00, 0x01, 0x01, 0x00, 0x00, 
  0x03, 0x01, 0x00, 0x00, 0x02, 0x01, 0x00, 0x00, 0x1f, 0x01, 0x01, 0x00, 
  0x10, 0x40, 0x00, 0x00, 0x10, 0x00, 0x00, 0x00, 0x11, 0x40, 0x00, 0x00, 
  0x00, 0x00, 0x00, 0x00, 0x12, 0x40, 0x00, 0x00, 0x00, 0x00, 0x00, 0x00, 
  0x13, 0x40, 0x00, 0x00, 0x00, 0x00, 0x00, 0x00, 0x1b, 0x01, 0x00, 0x00, 
  0x1c, 0x01, 0x00, 0x00, 0x1a, 0x01, 0x00, 0x00, 0x12, 0x01, 0x00, 0x00, 
  0x11, 0x01, 0x00, 0x00, 0x13, 0x01, 0x0f, 0x00, 0x16, 0x40, 0x00, 0x00, 
  0x10, 0x00, 0x00, 0x00, 0x15, 0x40, 0x00, 0x00, 0x10, 0x00, 0x00, 0x00, 
  0x14, 0x40, 0x00, 0x00, 0x10, 0x00, 0x00, 0x00, 0x18, 0x01, 0x80, 0xff, 
  0x14, 0x01, 0x41, 0x00, 0x21, 0x01, 0x00, 0x00, 0x20, 0x01, 0x00, 0x00, 
  0x22, 0x01, 0x00, 0x00, 0x28, 0x01, 0x00, 0x00, 0x20, 0x40, 0x00, 0x00, 
  0xf0, 0x01, 0x00, 0x00, 0x21, 0x40, 0x00, 0x00, 0x20, 0x00, 0x00, 0x00, 
  0x29, 0x01, 0x00, 0x00, 0x22, 0x40, 0x00, 0x00, 0x50, 0x01, 0x00, 0x00, 
  0x23, 0x40, 0x00, 0x00, 0xa0, 0x00, 0x00, 0x00, 0x25, 0x01, 0x00, 0x00, 
  0x26, 0x01, 0x80, 0xff, 0x27, 0x01, 0x7f, 0x00, 0x16, 0x01, 0x00, 0x00, 
  0x15, 0x01, 0x01, 0x00, 0x17, 0x01, 0x0f, 0x00, 0x0d, 0x01, 0x06, 0x00, 
  0x2d, 0x01, 0x0e, 0x00, 0x24, 0x01, 0x00, 0x00, 0x2f, 0x01, 0x00, 0x00, 
  0x02, 0x00, 0x00, 0x00, 0x00, 0x40, 0x00, 0x00, 0x10, 0x00, 0x00, 0x00, 
  0x04, 0x01, 0x0f, 0x00, 0x06, 0x40, 0x00, 0x00, 0x10, 0x00, 0x00, 0x00, 
  0x05, 0x40, 0x00, 0x00, 0x10, 0x00, 0x00, 0x00, 0x04, 0x40, 0x00, 0x00, 
  0x10, 0x00, 0x00, 0x00, 0x05, 0x01, 0x41, 0x00, 0x10, 0x40, 0x00, 0x00, 
  0x00, 0x00, 0x00, 0x00, 0x20, 0x40, 0x00, 0x00, 0xb0, 0x02, 0x00, 0x00, 
  0x21, 0x40, 0x00, 0x00, 0x50, 0x01, 0x00, 0x00, 0x22, 0x40, 0x00, 0x00, 
  0x10, 0x02, 0x00, 0x00, 0x02, 0x00, 0x00, 0x00, 0x00, 0x40, 0x00, 0x00, 
  0x00, 0x00, 0x00, 0x00, 0x10, 0x40, 0x00, 0x00, 0x10, 0x00, 0x00, 0x00, 
  0x13, 0x01, 0x00, 0x00, 0x16, 0x40, 0x00, 0x00, 0x01, 0x00, 0x00, 0x00, 
  0x15, 0x40, 0x00, 0x00, 0x01, 0x00, 0x00, 0x00, 0x14, 0x40, 0x00, 0x00, 
  0x01, 0x00, 0x00, 0x00, 0x18, 0x01, 0xf6, 0xff, 0x14, 0x01, 0x01, 0x00, 
  0x20, 0x40, 0x00, 0x00, 0x10, 0x04, 0x00, 0x00, 0x21, 0x40, 0x00, 0x00, 
  0x30, 0x00, 0x00, 0x00, 0x22, 0x40, 0x00, 0x00, 0x00, 0x04, 0x00, 0x00, 
  0x23, 0x40, 0x00, 0x00, 0x10, 0x00, 0x00, 0x00, 0x17, 0x01, 0x07, 0x00, 
  0x02, 0x00, 0x00, 0x00, 0x00, 0x00, 0xff, 0xff, 0x04, 0x00, 0x04, 0x00, 
  0x04, 0x00, 0x00, 0x00, 0x01, 0x00, 0x00, 0x00, 0x14, 0x00, 0x00, 0x00, 
  0x00, 0x00, 0x0e, 0x00, 0x18, 0x00, 0x14, 0x00, 0x10, 0x00, 0x0c, 0x00, 
  0x08, 0x00, 0x04, 0x00, 0x0e, 0x00, 0x00, 0x00, 0x84, 0x02, 0x00, 0x00, 
  0x10, 0x00, 0x00, 0x00, 0x74, 0x00, 0x00, 0x00, 0x78, 0x00, 0x00, 0x00, 
  0x7c, 0x00, 0x00, 0x00, 0x01, 0x00, 0x00, 0x00, 0x1c, 0x00, 0x00, 0x00, 
  0x00, 0x00, 0x16, 0x00, 0x18, 0x00, 0x00, 0x00, 0x14, 0x00, 0x10, 0x00, 
  0x00, 0x00, 0x00, 0x00, 0x08, 0x00, 0x00, 0x00, 0x04, 0x00, 0x0c, 0x00, 
  0x16, 0x00, 0x00, 0x00, 0x14, 0x00, 0x00, 0x00, 0x14, 0x00, 0x00, 0x00, 
  0x18, 0x00, 0x00, 0x00, 0x18, 0x00, 0x00, 0x00, 0x1c, 0x00, 0x00, 0x00, 
  0x00, 0x00, 0x00, 0x00, 0x03, 0x00, 0x00, 0x00, 0x01, 0x04, 0x01, 0x00, 
  0x00, 0x00, 0x00, 0x00, 0x01, 0x00, 0x00, 0x00, 0x00, 0x00, 0x00, 0x00, 
  0x05, 0x00, 0x00, 0x00, 0x01, 0x00, 0x00, 0x00, 0x02, 0x00, 0x00, 0x00, 
  0x03, 0x00, 0x00, 0x00, 0x04, 0x00, 0x00, 0x00, 0x05, 0x00, 0x00, 0x00, 
  0x01, 0x00, 0x00, 0x00, 0x00, 0x00, 0x00, 0x00, 0x01, 0x00, 0x00, 0x00, 
  0x05, 0x00, 0x00, 0x00, 0x06, 0x00, 0x00, 0x00, 0x84, 0x01, 0x00, 0x00, 
  0x34, 0x01, 0x00, 0x00, 0xf0, 0x00, 0x00, 0x00, 0xb8, 0x00, 0x00, 0x00, 
  0x70, 0x00, 0x00, 0x00, 0x04, 0x00, 0x00, 0x00, 0xa2, 0xfe, 0xff, 0xff, 
  0x10, 0x00, 0x00, 0x00, 0x2c, 0x00, 0x00, 0x00, 0x00, 0x00, 0x00, 0x09, 
  0x4c, 0x00, 0x00, 0x00, 0x94, 0xfe, 0xff, 0xff, 0x08, 0x00, 0x00, 0x00, 
  0x10, 0x00, 0x00, 0x00, 0x01, 0x00, 0x00, 0x00, 0x80, 0xff, 0xff, 0xff, 
  0xff, 0xff, 0xff, 0xff, 0x01, 0x00, 0x00, 0x00, 0x5d, 0x4f, 0xc9, 0x3c, 
  0x21, 0x00, 0x00, 0x00, 0x73, 0x65, 0x72, 0x76, 0x69, 0x6e, 0x67, 0x5f, 
  0x64, 0x65, 0x66, 0x61, 0x75, 0x6c, 0x74, 0x5f, 0x6b, 0x65, 0x72, 0x61, 
  0x73, 0x5f, 0x74, 0x65, 0x6e, 0x73, 0x6f, 0x72, 0x5f, 0x32, 0x33, 0x3a, 
  0x30, 0x00, 0x00, 0x00, 0x02, 0x00, 0x00, 0x00, 0x01, 0x00, 0x00, 0x00, 
  0x01, 0x00, 0x00, 0x00, 0xc8, 0xff, 0xff, 0xff, 0x0c, 0x00, 0x00, 0x00, 
  0x00, 0x00, 0x00, 0x03, 0x24, 0x00, 0x00, 0x00, 0x19, 0x00, 0x00, 0x00, 
  0x6d, 0x61, 0x69, 0x6e, 0x5f, 0x73, 0x70, 0x6c, 0x69, 0x74, 0x5f, 0x31, 
  0x5f, 0x73, 0x63, 0x72, 0x61, 0x74, 0x63, 0x68, 0x5f, 0x66, 0x61, 0x73, 
  0x74, 0x00, 0x00, 0x00, 0x01, 0x00, 0x00, 0x00, 0x20, 0x00, 0x00, 0x00, 
  0x0c, 0x00, 0x10, 0x00, 0x0c, 0x00, 0x0b, 0x00, 0x00, 0x00, 0x04, 0x00, 
  0x0c, 0x00, 0x00, 0x00, 0x0c, 0x00, 0x00, 0x00, 0x00, 0x00, 0x00, 0x03, 
  0x20, 0x00, 0x00, 0x00, 0x14, 0x00, 0x00, 0x00, 0x6d, 0x61, 0x69, 0x6e, 
  0x5f, 0x73, 0x70, 0x6c, 0x69, 0x74, 0x5f, 0x31, 0x5f, 0x73, 0x63, 0x72, 
  0x61, 0x74, 0x63, 0x68, 0x00, 0x00, 0x00, 0x00, 0x01, 0x00, 0x00, 0x00, 
  0x20, 0x00, 0x00, 0x00, 0xcc, 0xff, 0xff, 0xff, 0x10, 0x00, 0x00, 0x00, 
  0x02, 0x00, 0x00, 0x00, 0x00, 0x00, 0x00, 0x03, 0x1c, 0x00, 0x00, 0x00, 
  0x12, 0x00, 0x00, 0x00, 0x6d, 0x61, 0x69, 0x6e, 0x5f, 0x73, 0x70, 0x6c, 
  0x69, 0x74, 0x5f, 0x31, 0x5f, 0x66, 0x6c, 0x61, 0x73, 0x68, 0x00, 0x00, 
  0x01, 0x00, 0x00, 0x00, 0x40, 0x04, 0x00, 0x00, 0x0c, 0x00, 0x14, 0x00, 
  0x10, 0x00, 0x0f, 0x00, 0x08, 0x00, 0x04, 0x00, 0x0c, 0x00, 0x00, 0x00, 
  0x10, 0x00, 0x00, 0x00, 0x01, 0x00, 0x00, 0x00, 0x00, 0x00, 0x00, 0x03, 
  0x24, 0x00, 0x00, 0x00, 0x1b, 0x00, 0x00, 0x00, 0x6d, 0x61, 0x69, 0x6e, 
  0x5f, 0x73, 0x70, 0x6c, 0x69, 0x74, 0x5f, 0x31, 0x5f, 0x63, 0x6f, 0x6d, 
  0x6d, 0x61, 0x6e, 0x64, 0x5f, 0x73, 0x74, 0x72, 0x65, 0x61, 0x6d, 0x00, 
  0x01, 0x00, 0x00, 0x00, 0xf0, 0x01, 0x00, 0x00, 0x00, 0x00, 0x0e, 0x00, 
  0x14, 0x00, 0x10, 0x00, 0x0f, 0x00, 0x00, 0x00, 0x08, 0x00, 0x04, 0x00, 
  0x0e, 0x00, 0x00, 0x00, 0x1c, 0x00, 0x00, 0x00, 0x3c, 0x00, 0x00, 0x00, 
  0x00, 0x00, 0x00, 0x09, 0x54, 0x00, 0x00, 0x00, 0x0c, 0x00, 0x0c, 0x00, 
  0x00, 0x00, 0x00, 0x00, 0x08, 0x00, 0x04, 0x00, 0x0c, 0x00, 0x00, 0x00, 
  0x08, 0x00, 0x00, 0x00, 0x14, 0x00, 0x00, 0x00, 0x01, 0x00, 0x00, 0x00, 
  0xf6, 0xff, 0xff, 0xff, 0xff, 0xff, 0xff, 0xff, 0x00, 0x00, 0x00, 0x00, 
  0x01, 0x00, 0x00, 0x00, 0xb2, 0x9b, 0xfe, 0x3b, 0x1b, 0x00, 0x00, 0x00, 
  0x53, 0x74, 0x61, 0x74, 0x65, 0x66, 0x75, 0x6c, 0x50, 0x61, 0x72, 0x74, 
  0x69, 0x74, 0x69, 0x6f, 0x6e, 0x65, 0x64, 0x43, 0x61, 0x6c, 0x6c, 0x5f, 
  0x31, 0x3a, 0x30, 0x00, 0x02, 0x00, 0x00, 0x00, 0x01, 0x00, 0x00, 0x00, 
  0x01, 0x00, 0x00, 0x00, 0x04, 0x00, 0x00, 0x00, 0x6d, 0x61, 0x69, 0x6e, 
  0x00, 0x00, 0x00, 0x00, 0x14, 0x00, 0x00, 0x00, 0x56, 0x65, 0x6c, 0x61, 
  0x20, 0x34, 0x2e, 0x33, 0x2e, 0x30, 0x20, 0x4f, 0x70, 0x74, 0x69, 0x6d, 
  0x69, 0x73, 0x65, 0x64, 0x00, 0x00, 0x00, 0x00, 0x01, 0x00, 0x00, 0x00, 
  0x10, 0x00, 0x00, 0x00, 0x0c, 0x00, 0x10, 0x00, 0x0f, 0x00, 0x04, 0x00, 
  0x00, 0x00, 0x08, 0x00, 0x0c, 0x00, 0x00, 0x00, 0x0c, 0x00, 0x00, 0x00, 
  0x20, 0x00, 0x00, 0x00, 0x00, 0x00, 0x00, 0x20, 0x07, 0x00, 0x00, 0x00, 
  0x65, 0x74, 0x68, 0x6f, 0x73, 0x2d, 0x75, 0x00, 
};
const unsigned int model_int8_vela_tflite_len = 2960;
