const unsigned char model_float_tflite[] = {
  0x1c, 0x00, 0x00, 0x00, 0x54, 0x46, 0x4c, 0x33, 0x14, 0x00, 0x20, 0x00, 
  0x1c, 0x00, 0x18, 0x00, 0x14, 0x00, 0x10, 0x00, 0x0c, 0x00, 0x00, 0x00, 
  0x08, 0x00, 0x04, 0x00, 0x14, 0x00, 0x00, 0x00, 0x1c, 0x00, 0x00, 0x00, 
  0x98, 0x00, 0x00, 0x00, 0xf0, 0x00, 0x00, 0x00, 0x14, 0x07, 0x00, 0x00, 
  0x24, 0x07, 0x00, 0x00, 0x18, 0x0c, 0x00, 0x00, 0x03, 0x00, 0x00, 0x00, 
  0x01, 0x00, 0x00, 0x00, 0x10, 0x00, 0x00, 0x00, 0x00, 0x00, 0x0a, 0x00, 
  0x10, 0x00, 0x0c, 0x00, 0x08, 0x00, 0x04, 0x00, 0x0a, 0x00, 0x00, 0x00, 
  0x0c, 0x00, 0x00, 0x00, 0x1c, 0x00, 0x00, 0x00, 0x3c, 0x00, 0x00, 0x00, 
  0x0f, 0x00, 0x00, 0x00, 0x73, 0x65, 0x72, 0x76, 0x69, 0x6e, 0x67, 0x5f, 
  0x64, 0x65, 0x66, 0x61, 0x75, 0x6c, 0x74, 0x00, 0x01, 0x00, 0x00, 0x00, 
  0x04, 0x00, 0x00, 0x00, 0x90, 0xff, 0xff, 0xff, 0x09, 0x00, 0x00, 0x00, 
  0x04, 0x00, 0x00, 0x00, 0x08, 0x00, 0x00, 0x00, 0x6f, 0x75, 0x74, 0x70, 
  0x75, 0x74, 0x5f, 0x30, 0x00, 0x00, 0x00, 0x00, 0x01, 0x00, 0x00, 0x00, 
  0x04, 0x00, 0x00, 0x00, 0xba, 0xf9, 0xff, 0xff, 0x04, 0x00, 0x00, 0x00, 
  0x0f, 0x00, 0x00, 0x00, 0x6b, 0x65, 0x72, 0x61, 0x73, 0x5f, 0x74, 0x65, 
  0x6e, 0x73, 0x6f, 0x72, 0x5f, 0x32, 0x33, 0x00, 0x02, 0x00, 0x00, 0x00, 
  0x34, 0x00, 0x00, 0x00, 0x04, 0x00, 0x00, 0x00, 0xdc, 0xff, 0xff, 0xff, 
  0x0c, 0x00, 0x00, 0x00, 0x04, 0x00, 0x00, 0x00, 0x13, 0x00, 0x00, 0x00, 
  0x43, 0x4f, 0x4e, 0x56, 0x45, 0x52, 0x53, 0x49, 0x4f, 0x4e, 0x5f, 0x4d, 
  0x45, 0x54, 0x41, 0x44, 0x41, 0x54, 0x41, 0x00, 0x08, 0x00, 0x0c, 0x00, 
  0x08, 0x00, 0x04, 0x00, 0x08, 0x00, 0x00, 0x00, 0x0b, 0x00, 0x00, 0x00, 
  0x04, 0x00, 0x00, 0x00, 0x13, 0x00, 0x00, 0x00, 0x6d, 0x69, 0x6e, 0x5f, 
  0x72, 0x75, 0x6e, 0x74, 0x69, 0x6d, 0x65, 0x5f, 0x76, 0x65, 0x72, 0x73, 
  0x69, 0x6f, 0x6e, 0x00, 0x0d, 0x00, 0x00, 0x00, 0x20, 0x06, 0x00, 0x00, 
  0x18, 0x06, 0x00, 0x00, 0xc8, 0x05, 0x00, 0x00, 0xb0, 0x01, 0x00, 0x00, 
  0x9c, 0x01, 0x00, 0x00, 0x4c, 0x01, 0x00, 0x00, 0xfc, 0x00, 0x00, 0x00, 
  0xac, 0x00, 0x00, 0x00, 0xa4, 0x00, 0x00, 0x00, 0x9c, 0x00, 0x00, 0x00, 
  0x94, 0x00, 0x00, 0x00, 0x74, 0x00, 0x00, 0x00, 0x04, 0x00, 0x00, 0x00, 
  0x6a, 0xfa, 0xff, 0xff, 0x04, 0x00, 0x00, 0x00, 0x60, 0x00, 0x00, 0x00, 
  0x10, 0x00, 0x00, 0x00, 0x00, 0x00, 0x00, 0x00, 0x08, 0x00, 0x0e, 0x00, 
  0x08, 0x00, 0x04, 0x00, 0x08, 0x00, 0x00, 0x00, 0x10, 0x00, 0x00, 0x00, 
  0x24, 0x00, 0x00, 0x00, 0x00, 0x00, 0x06, 0x00, 0x08, 0x00, 0x04, 0x00, 
  0x06, 0x00, 0x00, 0x00, 0x04, 0x00, 0x00, 0x00, 0x00, 0x00, 0x00, 0x00, 
  0x0c, 0x00, 0x18, 0x00, 0x14, 0x00, 0x10, 0x00, 0x0c, 0x00, 0x04, 0x00, 
  0x0c, 0x00, 0x00, 0x00, 0x81, 0x03, 0xc2, 0xa2, 0xcd, 0xba, 0xb0, 0x0b, 
  0x02, 0x00, 0x00, 0x00, 0x02, 0x00, 0x00, 0x00, 0x04, 0x00, 0x00, 0x00, 
  0x06, 0x00, 0x00, 0x00, 0x32, 0x2e, 0x31, 0x37, 0x2e, 0x30, 0x00, 0x00, 
  0xd6, 0xfa, 0xff, 0xff, 0x04, 0x00, 0x00, 0x00, 0x10, 0x00, 0x00, 0x00, 
  0x31, 0x2e, 0x35, 0x2e, 0x30, 0x00, 0x00, 0x00, 0x00, 0x00, 0x00, 0x00, 
  0x00, 0x00, 0x00, 0x00, 0xc8, 0xf5, 0xff, 0xff, 0xcc, 0xf5, 0xff, 0xff, 
  0xd0, 0xf5, 0xff, 0xff, 0xfe, 0xfa, 0xff, 0xff, 0x04, 0x00, 0x00, 0x00, 
  0x40, 0x00, 0x00, 0x00, 0x94, 0x0d, 0xd3, 0x3e, 0x10, 0x3d, 0x14, 0xbd, 
  0xb6, 0x5a, 0x19, 0x3f, 0xfc, 0x27, 0xb5, 0xbe, 0xaf, 0xe9, 0x0b, 0xbf, 
  0x90, 0x5a, 0xfb, 0x3e, 0x80, 0xc4, 0x98, 0xbc, 0x00, 0xa4, 0xbd, 0xba, 
  0xa2, 0x41, 0xbc, 0xbe, 0x26, 0x4a, 0x1e, 0xbe, 0x7d, 0x11, 0xb6, 0x3e, 
  0x60, 0x65, 0xf0, 0xbc, 0x74, 0xed, 0x08, 0xbe, 0x4a, 0x75, 0x54, 0xbe, 
  0x4e, 0x93, 0xf0, 0xbe, 0x96, 0xfb, 0xb1, 0xbe, 0x4a, 0xfb, 0xff, 0xff, 
  0x04, 0x00, 0x00, 0x00, 0x40, 0x00, 0x00, 0x00, 0x48, 0xa1, 0xd2, 0xbe, 
  0x00, 0x00, 0x00, 0x00, 0x3a, 0xe4, 0xfe, 0xbd, 0x00, 0x00, 0x00, 0x00, 
  0x00, 0x00, 0x00, 0x00, 0x74, 0xf7, 0x66, 0x3d, 0x00, 0x00, 0x00, 0x00, 
  0x00, 0x00, 0x00, 0x00, 0x00, 0x00, 0x00, 0x00, 0x00, 0x00, 0x00, 0x00, 
  0xaf, 0x28, 0x33, 0xbf, 0x00, 0x00, 0x00, 0x00, 0x00, 0x00, 0x00, 0x00, 
  0x00, 0x00, 0x00, 0x00, 0x00, 0x00, 0x00, 0x00, 0x00, 0x00, 0x00, 0x00, 
  0x96, 0xfb, 0xff, 0xff, 0x04, 0x00, 0x00, 0x00, 0x40, 0x00, 0x00, 0x00, 
  0x1f, 0xd2, 0xb6, 0x3e, 0x26, 0x41, 0x87, 0xbc, 0x51, 0x5a, 0x48, 0xbf, 
  0x00, 0x00, 0x00, 0x00, 0x56, 0x29, 0x61, 0x3e, 0x85, 0x57, 0xa7, 0xbb, 
  0x8a, 0x27, 0xe3, 0xbe, 0xaf, 0x14, 0xda, 0xbc, 0xd9, 0x13, 0x83, 0x3e, 
  0x00, 0x00, 0x00, 0x00, 0x04, 0x58, 0xa6, 0xbb, 0x00, 0x00, 0x00, 0x00, 
  0xc3, 0xbf, 0x60, 0x3e, 0x00, 0x00, 0x00, 0x00, 0xc6, 0xdb, 0x25, 0xbf, 
  0x34, 0x4c, 0xff, 0xbd, 0xe2, 0xfb, 0xff, 0xff, 0x04, 0x00, 0x00, 0x00, 
  0x04, 0x00, 0x00, 0x00, 0x9e, 0x14, 0x4b, 0xbf, 0xf2, 0xfb, 0xff, 0xff, 
  0x04, 0x00, 0x00, 0x00, 0x00, 0x04, 0x00, 0x00, 0x76, 0x7c, 0x0c, 0xbf, 
  0x48, 0x52, 0xf3, 0xbd, 0x7e, 0x17, 0x2d, 0x3e, 0x6c, 0xe8, 0x5a, 0xbe, 
  0x1f, 0x67, 0xad, 0x3e, 0xc9, 0x9c, 0x14, 0x3f, 0xe7, 0x5c, 0x81, 0x3e, 
  0x36, 0xcb, 0x5f, 0x3e, 0x66, 0xad, 0xd8, 0xbe, 0x80, 0x02, 0x2e, 0xbd, 
  0x17, 0x59, 0xcd, 0xbf, 0x8e, 0xed, 0x3a, 0x3e, 0x18, 0xb5, 0x87, 0xbd, 
  0x8a, 0x61, 0xcd, 0xbe, 0x50, 0xe8, 0x26, 0xbe, 0x80, 0x0a, 0xf1, 0xbc, 
  0x0c, 0xba, 0x8c, 0xbe, 0x5f, 0xcc, 0xc3, 0x3e, 0xe0, 0xfd, 0x91, 0xbe, 
  0x30, 0x80, 0x5f, 0xbe, 0x38, 0x8d, 0xdd, 0xbe, 0xe6, 0x16, 0xb5, 0x3d, 
  0xa4, 0x24, 0x51, 0xbe, 0x20, 0x77, 0x50, 0xbc, 0x69, 0x5c, 0x85, 0x3e, 
  0x8f, 0xd3, 0xa4, 0xbe, 0x98, 0x3b, 0xbb, 0xbe, 0xbc, 0x43, 0x86, 0x3d, 
  0xf0, 0x23, 0x27, 0x3d, 0xe3, 0x6a, 0xab, 0xbe, 0x34, 0x7a, 0xf7, 0xbd, 
  0x66, 0xe1, 0x75, 0x3e, 0xbb, 0xa4, 0xfe, 0x3e, 0xaf, 0x22, 0x5f, 0xbe, 
  0x2c, 0x55, 0x83, 0x3e, 0x69, 0x99, 0x94, 0xbe, 0x5a, 0xef, 0x59, 0x3e, 
  0xb9, 0xba, 0x51, 0x3e, 0xff, 0x5a, 0xd3, 0x3e, 0x15, 0x6a, 0x44, 0xbe, 
  0xc4, 0x98, 0xd7, 0x3d, 0x7b, 0xe1, 0xdc, 0x3e, 0x65, 0xb6, 0x39, 0x3e, 
  0xe5, 0xfe, 0xcc, 0x3e, 0x96, 0x3e, 0x55, 0xbe, 0x48, 0x79, 0x6f, 0x3d, 
  0xde, 0x43, 0xbe, 0xbe, 0xf0, 0x50, 0xae, 0xbe, 0x6e, 0x38, 0x97, 0xbe, 
  0x53, 0xd2, 0x5f, 0xbe, 0x7c, 0xfc, 0x92, 0x3d, 0xdc, 0xf9, 0xa0, 0xbe, 
  0xa5, 0xe7, 0xc4, 0x3e, 0xb3, 0xba, 0x9c, 0xbe, 0x9c, 0x03, 0xba, 0xbe, 
  0xfa, 0x04, 0xbf, 0xbe, 0x38, 0x81, 0x94, 0xbd, 0xca, 0x0e, 0x99, 0xbe, 
  0x80, 0x80, 0x64, 0xbc, 0xe4, 0x89, 0xa9, 0x3d, 0xe6, 0x05, 0xcf, 0xbe, 
  0xa2, 0x14, 0xa0, 0xbe, 0xe0, 0xfa, 0xf5, 0x3c, 0x22, 0x97, 0x77, 0x3e, 
  0x9e, 0xdd, 0x90, 0x3e, 0xe0, 0xe9, 0x83, 0xbe, 0x30, 0xe0, 0xce, 0x3d, 
  0x7c, 0x1f, 0x90, 0x3d, 0x40, 0x83, 0xab, 0xbc, 0x1c, 0x67, 0xd7, 0x3e, 
  0x8b, 0x3f, 0x87, 0x3e, 0x90, 0xd3, 0x9f, 0x3c, 0x00, 0xbd, 0xa8, 0xba, 
  0x4b, 0x59, 0xc2, 0xbe, 0xd2, 0x13, 0xe7, 0x3d, 0xa5, 0x18, 0xa9, 0x3e, 
  0x08, 0xa3, 0xe4, 0xbd, 0x38, 0xdb, 0x53, 0xbe, 0x11, 0x07, 0xc8, 0xbe, 
  0x6b, 0xa8, 0x8f, 0x3e, 0x73, 0xfe, 0x9d, 0x3e, 0x1e, 0x6a, 0x74, 0x3e, 
  0xfc, 0x55, 0xa9, 0xbe, 0x08, 0x7c, 0x81, 0xbe, 0x00, 0x71, 0x22, 0xbe, 
  0xeb, 0x93, 0xdd, 0xbe, 0x69, 0x6d, 0xa0, 0x3e, 0x1d, 0x7f, 0x81, 0xbe, 
  0x14, 0x30, 0xd0, 0x3d, 0xfb, 0x5e, 0xdd, 0x3e, 0x99, 0x41, 0x98, 0xbe, 
  0xe7, 0x71, 0xb4, 0xbe, 0xcb, 0x01, 0x93, 0x3e, 0x78, 0x9c, 0xab, 0xbe, 
  0x75, 0x52, 0x8b, 0x3e, 0x82, 0xfe, 0xd0, 0xbe, 0x53, 0x27, 0x51, 0xbd, 
  0x4b, 0x29, 0x81, 0x3e, 0x0e, 0x90, 0xbc, 0x3e, 0x41, 0x7d, 0xac, 0xbe, 
  0xb6, 0x2d, 0x0f, 0x3e, 0x33, 0xa1, 0xfb, 0x3c, 0x71, 0xf6, 0xd3, 0x3e, 
  0x00, 0xa4, 0x2a, 0x3c, 0xf8, 0xd4, 0xf4, 0xbd, 0xad, 0xc5, 0xc8, 0x3e, 
  0xbd, 0xfa, 0x55, 0xbe, 0x2d, 0x26, 0xc6, 0x3e, 0x3e, 0xf2, 0x3e, 0x3e, 
  0xd1, 0x0e, 0xc2, 0x3e, 0xf2, 0x87, 0x38, 0x3e, 0xb5, 0xe1, 0xcd, 0x3e, 
  0x1c, 0x1b, 0x79, 0xbe, 0x06, 0x6e, 0x2f, 0x3e, 0x67, 0x07, 0xd5, 0xbb, 
  0x33, 0x75, 0xd2, 0xbe, 0x38, 0x23, 0x47, 0x3d, 0x0d, 0x11, 0x57, 0x3d, 
  0xed, 0xea, 0xa4, 0x3e, 0x66, 0xba, 0x45, 0xbe, 0x10, 0xa6, 0x82, 0xbe, 
  0xee, 0x8c, 0x21, 0x3e, 0x6c, 0x66, 0xd7, 0xbe, 0x8b, 0x63, 0xac, 0xbe, 
  0xe3, 0x63, 0xcf, 0x3e, 0x5d, 0x19, 0xa7, 0xbe, 0x30, 0x6c, 0x5e, 0xbd, 
  0x1a, 0x54, 0x94, 0xbe, 0x37, 0xb6, 0x8e, 0x3e, 0x17, 0xc9, 0xc2, 0x3e, 
  0x10, 0xfa, 0xf7, 0x3e, 0x05, 0x88, 0x57, 0xbe, 0x20, 0xbd, 0x05, 0x3d, 
  0x98, 0xc2, 0x2e, 0xbe, 0xee, 0xba, 0x19, 0xbe, 0x9e, 0x2b, 0x9f, 0xbe, 
  0x44, 0x39, 0x85, 0x3d, 0x0c, 0xce, 0xfd, 0x3d, 0x92, 0x42, 0xb7, 0xbd, 
  0x60, 0x43, 0x93, 0x3c, 0x78, 0x51, 0x36, 0x3d, 0xf6, 0xe1, 0x6f, 0x3e, 
  0x04, 0xfe, 0xc1, 0xbd, 0xd8, 0x35, 0xd5, 0xbe, 0x5d, 0x83, 0xd4, 0xbe, 
  0x27, 0xf5, 0xa3, 0x3e, 0xd6, 0x6a, 0x99, 0xbe, 0x38, 0x83, 0x06, 0x3d, 
  0x15, 0x94, 0xac, 0x3e, 0x0d, 0x37, 0xb6, 0xbe, 0xe0, 0x1c, 0x14, 0x3d, 
  0x2d, 0x52, 0x99, 0x3e, 0x0e, 0xe6, 0x4c, 0x3e, 0xa2, 0xd3, 0x43, 0x3e, 
  0x16, 0x41, 0xca, 0xbe, 0x09, 0x59, 0x5e, 0xbe, 0xb9, 0xb2, 0xd4, 0x3e, 
  0x16, 0x8a, 0x6c, 0x3e, 0x59, 0xdc, 0xc5, 0x3e, 0x96, 0x92, 0x04, 0xbe, 
  0xf0, 0xe0, 0x03, 0x3e, 0xa1, 0xae, 0x8a, 0xbe, 0x45, 0x98, 0x92, 0xbe, 
  0xeb, 0x80, 0xc8, 0xbe, 0x22, 0x0b, 0xb5, 0xbe, 0x51, 0x38, 0x91, 0xbe, 
  0xe1, 0x75, 0x8d, 0x3e, 0x94, 0xb6, 0xae, 0xbd, 0xe4, 0x64, 0x37, 0xbe, 
  0x20, 0x1f, 0x0d, 0x3d, 0x42, 0xcd, 0x34, 0x3e, 0x7b, 0xa9, 0xaf, 0x3e, 
  0x9e, 0x4e, 0x0c, 0xbe, 0xc0, 0x17, 0xc3, 0xbb, 0xa7, 0x86, 0x9e, 0xbe, 
  0xe0, 0xee, 0x97, 0xbd, 0x84, 0x31, 0xe9, 0x3d, 0x72, 0xe2, 0x9d, 0xbe, 
  0xca, 0x9e, 0x14, 0x3e, 0xb4, 0x62, 0x97, 0x3d, 0x5f, 0xe7, 0xdb, 0x3e, 
  0x6f, 0xbb, 0xb4, 0xbe, 0x85, 0x88, 0x81, 0x3e, 0x5c, 0xee, 0xcf, 0xbd, 
  0xd4, 0x35, 0x61, 0xbe, 0x60, 0x98, 0x99, 0xbc, 0x0e, 0x5c, 0x91, 0xbe, 
  0x49, 0x4b, 0x68, 0xbe, 0xd0, 0xde, 0x94, 0xbe, 0xe0, 0x14, 0xe6, 0xbd, 
  0xa9, 0x71, 0xbc, 0x3e, 0x18, 0x41, 0x85, 0xbe, 0x66, 0x28, 0xe8, 0xbc, 
  0x59, 0xa6, 0xae, 0x3e, 0xe7, 0x1f, 0x83, 0x3e, 0xcd, 0x39, 0xce, 0x3e, 
  0xa6, 0x13, 0x30, 0x3e, 0xc3, 0x27, 0x91, 0x3e, 0xf0, 0x96, 0xac, 0xbd, 
  0x4a, 0x2b, 0x24, 0xbe, 0x00, 0x8b, 0xb8, 0xbc, 0x8f, 0x4a, 0xca, 0x3e, 
  0x2b, 0x1a, 0x49, 0xbe, 0x80, 0x07, 0xe9, 0xbc, 0x25, 0x68, 0x90, 0x3e, 
  0xa9, 0x9b, 0xd8, 0x3e, 0xb0, 0x98, 0xc9, 0xbe, 0x81, 0xe6, 0xaa, 0x3e, 
  0xd9, 0xd9, 0x55, 0xbe, 0x34, 0x66, 0xed, 0xbd, 0xc8, 0xeb, 0xbf, 0xbd, 
  0x86, 0xdb, 0x55, 0x3e, 0xfa, 0x99, 0xb3, 0xbe, 0x3a, 0xaf, 0x83, 0xbe, 
  0x17, 0xa4, 0xdd, 0xbe, 0x19, 0x95, 0x8f, 0x3e, 0x27, 0x9a, 0xcc, 0x3e, 
  0xba, 0x2f, 0xd2, 0xbe, 0x34, 0x5a, 0x9e, 0xbe, 0x13, 0x0a, 0x8a, 0x3e, 
  0x3b, 0xc3, 0x91, 0x3e, 0x3b, 0x2f, 0xa1, 0x3e, 0x17, 0xf5, 0xcd, 0x3e, 
  0xd7, 0xa3, 0xbf, 0x3e, 0x4f, 0x6c, 0x84, 0x3e, 0x09, 0x41, 0xb3, 0xbe, 
  0xe0, 0x5c, 0x8a, 0x3e, 0x44, 0xd7, 0x8d, 0xbe, 0x80, 0x02, 0x4c, 0x3c, 
  0x1f, 0xa3, 0x62, 0x3e, 0xd4, 0xe4, 0xda, 0xbd, 0xa1, 0x96, 0xd1, 0xbe, 
  0xaa, 0xa4, 0x91, 0xbe, 0x84, 0xa5, 0xa7, 0x3d, 0x69, 0xb6, 0x8f, 0x3e, 
  0xcc, 0x7b, 0x63, 0xbe, 0x5f, 0xb5, 0x9a, 0xbe, 0x4e, 0x53, 0x92, 0xbe, 
  0xb4, 0x9d, 0x9d, 0xbe, 0x48, 0x09, 0x65, 0xbd, 0x06, 0x08, 0xc8, 0x3e, 
  0x72, 0x1d, 0x26, 0xbe, 0xf3, 0x4b, 0x49, 0x3e, 0x02, 0x47, 0x2b, 0x3e, 
  0xc6, 0x59, 0x60, 0x3e, 0x29, 0x16, 0x88, 0x3d, 0x37, 0x58, 0xd2, 0x3e, 
  0x80, 0x49, 0x10, 0x3b, 0xeb, 0x00, 0xa5, 0x3e, 0x10, 0x8d, 0xb4, 0xbe, 
  0x50, 0x16, 0xc7, 0x3e, 0xf3, 0x66, 0x40, 0xbe, 0x5c, 0x69, 0x89, 0xbd, 
  0xf5, 0x15, 0x98, 0x3e, 0xd0, 0xe6, 0xef, 0xbc, 0xbc, 0xbb, 0xda, 0x3d, 
  0x00, 0x00, 0x06, 0x00, 0x08, 0x00, 0x04, 0x00, 0x06, 0x00, 0x00, 0x00, 
  0x04, 0x00, 0x00, 0x00, 0x40, 0x00, 0x00, 0x00, 0xc0, 0xd0, 0x28, 0x40, 
  0x6a, 0xdd, 0x14, 0x3d, 0x72, 0x5a, 0x6e, 0x3e, 0x04, 0x66, 0x9e, 0x3e, 
  0x7f, 0x3c, 0x9b, 0xbe, 0xa4, 0x3e, 0xfc, 0x3e, 0xbd, 0xac, 0x24, 0x3f, 
  0xb1, 0x74, 0x3f, 0x3e, 0x8f, 0x6e, 0x85, 0xbe, 0x18, 0x25, 0x88, 0xbd, 
  0x66, 0x0b, 0xb5, 0x3e, 0xd4, 0xf2, 0x3e, 0x3e, 0x8e, 0xc1, 0x07, 0xbe, 
  0xc5, 0xa2, 0x0e, 0xbf, 0xc2, 0x93, 0xee, 0x3e, 0xaf, 0x60, 0xeb, 0x3c, 
  0x28, 0xfb, 0xff, 0xff, 0x2c, 0xfb, 0xff, 0xff, 0x0f, 0x00, 0x00, 0x00, 
  0x4d, 0x4c, 0x49, 0x52, 0x20, 0x43, 0x6f, 0x6e, 0x76, 0x65, 0x72, 0x74, 
  0x65, 0x64, 0x2e, 0x00, 0x01, 0x00, 0x00, 0x00, 0x14, 0x00, 0x00, 0x00, 
  0x00, 0x00, 0x0e, 0x00, 0x18, 0x00, 0x14, 0x00, 0x10, 0x00, 0x0c, 0x00, 
  0x08, 0x00, 0x04, 0x00, 0x0e, 0x00, 0x00, 0x00, 0x14, 0x00, 0x00, 0x00, 
  0x1c, 0x00, 0x00, 0x00, 0xd8, 0x00, 0x00, 0x00, 0xdc, 0x00, 0x00, 0x00, 
  0xe0, 0x00, 0x00, 0x00, 0x04, 0x00, 0x00, 0x00, 0x6d, 0x61, 0x69, 0x6e, 
  0x00, 0x00, 0x00, 0x00, 0x03, 0x00, 0x00, 0x00, 0x80, 0x00, 0x00, 0x00, 
  0x38, 0x00, 0x00, 0x00, 0x04, 0x00, 0x00, 0x00, 0x9a, 0xff, 0xff, 0xff, 
  0x10, 0x00, 0x00, 0x00, 0x00, 0x00, 0x00, 0x08, 0x0c, 0x00, 0x00, 0x00, 
  0x10, 0x00, 0x00, 0x00, 0xa4, 0xfb, 0xff, 0xff, 0x01, 0x00, 0x00, 0x00, 
  0x09, 0x00, 0x00, 0x00, 0x03, 0x00, 0x00, 0x00, 0x08, 0x00, 0x00, 0x00, 
  0x01, 0x00, 0x00, 0x00, 0x03, 0x00, 0x00, 0x00, 0xca, 0xff, 0xff, 0xff, 
  0x10, 0x00, 0x00, 0x00, 0x00, 0x00, 0x00, 0x08, 0x10, 0x00, 0x00, 0x00, 
  0x14, 0x00, 0x00, 0x00, 0xba, 0xff, 0xff, 0xff, 0x00, 0x00, 0x00, 0x01, 
  0x01, 0x00, 0x00, 0x00, 0x08, 0x00, 0x00, 0x00, 0x03, 0x00, 0x00, 0x00, 
  0x07, 0x00, 0x00, 0x00, 0x02, 0x00, 0x00, 0x00, 0x04, 0x00, 0x00, 0x00, 
  0x00, 0x00, 0x0e, 0x00, 0x16, 0x00, 0x00, 0x00, 0x10, 0x00, 0x0c, 0x00, 
  0x0b, 0x00, 0x04, 0x00, 0x0e, 0x00, 0x00, 0x00, 0x18, 0x00, 0x00, 0x00, 
  0x00, 0x00, 0x00, 0x08, 0x18, 0x00, 0x00, 0x00, 0x1c, 0x00, 0x00, 0x00, 
  0x00, 0x00, 0x06, 0x00, 0x08, 0x00, 0x07, 0x00, 0x06, 0x00, 0x00, 0x00, 
  0x00, 0x00, 0x00, 0x01, 0x01, 0x00, 0x00, 0x00, 0x07, 0x00, 0x00, 0x00, 
  0x03, 0x00, 0x00, 0x00, 0x00, 0x00, 0x00, 0x00, 0x06, 0x00, 0x00, 0x00, 
  0x05, 0x00, 0x00, 0x00, 0x01, 0x00, 0x00, 0x00, 0x09, 0x00, 0x00, 0x00, 
  0x01, 0x00, 0x00, 0x00, 0x00, 0x00, 0x00, 0x00, 0x0a, 0x00, 0x00, 0x00, 
  0x84, 0x03, 0x00, 0x00, 0x2c, 0x03, 0x00, 0x00, 0xd4, 0x02, 0x00, 0x00, 
  0x98, 0x02, 0x00, 0x00, 0x5c, 0x02, 0x00, 0x00, 0xfc, 0x01, 0x00, 0x00, 
  0xa8, 0x01, 0x00, 0x00, 0x04, 0x01, 0x00, 0x00, 0x60, 0x00, 0x00, 0x00, 
  0x04, 0x00, 0x00, 0x00, 0xba, 0xfc, 0xff, 0xff, 0x00, 0x00, 0x00, 0x01, 
  0x14, 0x00, 0x00, 0x00, 0x1c, 0x00, 0x00, 0x00, 0x1c, 0x00, 0x00, 0x00, 
  0x0a, 0x00, 0x00, 0x00, 0x34, 0x00, 0x00, 0x00, 0x02, 0x00, 0x00, 0x00, 
  0xff, 0xff, 0xff, 0xff, 0x01, 0x00, 0x00, 0x00, 0xa4, 0xfc, 0xff, 0xff, 
  0x1b, 0x00, 0x00, 0x00, 0x53, 0x74, 0x61, 0x74, 0x65, 0x66, 0x75, 0x6c, 
  0x50, 0x61, 0x72, 0x74, 0x69, 0x74, 0x69, 0x6f, 0x6e, 0x65, 0x64, 0x43, 
  0x61, 0x6c, 0x6c, 0x5f, 0x31, 0x3a, 0x30, 0x00, 0x02, 0x00, 0x00, 0x00, 
  0x01, 0x00, 0x00, 0x00, 0x01, 0x00, 0x00, 0x00, 0x12, 0xfd, 0xff, 0xff, 
  0x00, 0x00, 0x00, 0x01, 0x14, 0x00, 0x00, 0x00, 0x1c, 0x00, 0x00, 0x00, 
  0x1c, 0x00, 0x00, 0x00, 0x09, 0x00, 0x00, 0x00, 0x7c, 0x00, 0x00, 0x00, 
  0x02, 0x00, 0x00, 0x00, 0xff, 0xff, 0xff, 0xff, 0x10, 0x00, 0x00, 0x00, 
  0xfc, 0xfc, 0xff, 0xff, 0x61, 0x00, 0x00, 0x00, 0x73, 0x65, 0x71, 0x75, 
  0x65, 0x6e, 0x74, 0x69, 0x61, 0x6c, 0x5f, 0x35, 0x5f, 0x31, 0x2f, 0x64, 
  0x65, 0x6e, 0x73, 0x65, 0x5f, 0x31, 0x33, 0x5f, 0x31, 0x2f, 0x4d, 0x61, 
  0x74, 0x4d, 0x75, 0x6c, 0x3b, 0x73, 0x65, 0x71, 0x75, 0x65, 0x6e, 0x74, 
  0x69, 0x61, 0x6c, 0x5f, 0x35, 0x5f, 0x31, 0x2f, 0x64, 0x65, 0x6e, 0x73, 
  0x65, 0x5f, 0x31, 0x33, 0x5f, 0x31, 0x2f, 0x52, 0x65, 0x6c, 0x75, 0x3b, 
  0x73, 0x65, 0x71, 0x75, 0x65, 0x6e, 0x74, 0x69, 0x61, 0x6c, 0x5f, 0x35, 
  0x5f, 0x31, 0x2f, 0x64, 0x65, 0x6e, 0x73, 0x65, 0x5f, 0x31, 0x33, 0x5f, 
  0x31, 0x2f, 0x42, 0x69, 0x61, 0x73, 0x41, 0x64, 0x64, 0x00, 0x00, 0x00, 
  0x02, 0x00, 0x00, 0x00, 0x01, 0x00, 0x00, 0x00, 0x10, 0x00, 0x00, 0x00, 
  0xb2, 0xfd, 0xff, 0xff, 0x00, 0x00, 0x00, 0x01, 0x14, 0x00, 0x00, 0x00, 
  0x1c, 0x00, 0x00, 0x00, 0x1c, 0x00, 0x00, 0x00, 0x08, 0x00, 0x00, 0x00, 
  0x7c, 0x00, 0x00, 0x00, 0x02, 0x00, 0x00, 0x00, 0xff, 0xff, 0xff, 0xff, 
  0x10, 0x00, 0x00, 0x00, 0x9c, 0xfd, 0xff, 0xff, 0x61, 0x00, 0x00, 0x00, 
  0x73, 0x65, 0x71, 0x75, 0x65, 0x6e, 0x74, 0x69, 0x61, 0x6c, 0x5f, 0x35, 
  0x5f, 0x31, 0x2f, 0x64, 0x65, 0x6e, 0x73, 0x65, 0x5f, 0x31, 0x32, 0x5f, 
  0x31, 0x2f, 0x4d, 0x61, 0x74, 0x4d, 0x75, 0x6c, 0x3b, 0x73, 0x65, 0x71, 
  0x75, 0x65, 0x6e, 0x74, 0x69, 0x61, 0x6c, 0x5f, 0x35, 0x5f, 0x31, 0x2f, 
  0x64, 0x65, 0x6e, 0x73, 0x65, 0x5f, 0x31, 0x32, 0x5f, 0x31, 0x2f, 0x52, 
  0x65, 0x6c, 0x75, 0x3b, 0x73, 0x65, 0x71, 0x75, 0x65, 0x6e, 0x74, 0x69, 
  0x61, 0x6c, 0x5f, 0x35, 0x5f, 0x31, 0x2f, 0x64, 0x65, 0x6e, 0x73, 0x65, 
  0x5f, 0x31, 0x32, 0x5f, 0x31, 0x2f, 0x42, 0x69, 0x61, 0x73, 0x41, 0x64, 
  0x64, 0x00, 0x00, 0x00, 0x02, 0x00, 0x00, 0x00, 0x01, 0x00, 0x00, 0x00, 
  0x10, 0x00, 0x00, 0x00, 0xa6, 0xfe, 0xff, 0xff, 0x00, 0x00, 0x00, 0x01, 
  0x10, 0x00, 0x00, 0x00, 0x10, 0x00, 0x00, 0x00, 0x07, 0x00, 0x00, 0x00, 
  0x30, 0x00, 0x00, 0x00, 0x2c, 0xfe, 0xff, 0xff, 0x20, 0x00, 0x00, 0x00, 
  0x73, 0x65, 0x71, 0x75, 0x65, 0x6e, 0x74, 0x69, 0x61, 0x6c, 0x5f, 0x35, 
  0x5f, 0x31, 0x2f, 0x64, 0x65, 0x6e, 0x73, 0x65, 0x5f, 0x31, 0x32, 0x5f, 
  0x31, 0x2f, 0x4d, 0x61, 0x74, 0x4d, 0x75, 0x6c, 0x00, 0x00, 0x00, 0x00, 
  0x02, 0x00, 0x00, 0x00, 0x10, 0x00, 0x00, 0x00, 0x01, 0x00, 0x00, 0x00, 
  0xf6, 0xfe, 0xff, 0xff, 0x00, 0x00, 0x00, 0x01, 0x10, 0x00, 0x00, 0x00, 
  0x10, 0x00, 0x00, 0x00, 0x06, 0x00, 0x00, 0x00, 0x40, 0x00, 0x00, 0x00, 
  0x7c, 0xfe, 0xff, 0xff, 0x30, 0x00, 0x00, 0x00, 0x73, 0x65, 0x71, 0x75, 
  0x65, 0x6e, 0x74, 0x69, 0x61, 0x6c, 0x5f, 0x35, 0x5f, 0x31, 0x2f, 0x64, 
  0x65, 0x6e, 0x73, 0x65, 0x5f, 0x31, 0x32, 0x5f, 0x31, 0x2f, 0x42, 0x69, 
  0x61, 0x73, 0x41, 0x64, 0x64, 0x2f, 0x52, 0x65, 0x61, 0x64, 0x56, 0x61, 
  0x72, 0x69, 0x61, 0x62, 0x6c, 0x65, 0x4f, 0x70, 0x00, 0x00, 0x00, 0x00, 
  0x01, 0x00, 0x00, 0x00, 0x10, 0x00, 0x00, 0x00, 0x52, 0xff, 0xff, 0xff, 
  0x00, 0x00, 0x00, 0x01, 0x10, 0x00, 0x00, 0x00, 0x10, 0x00, 0x00, 0x00, 
  0x05, 0x00, 0x00, 0x00, 0x1c, 0x00, 0x00, 0x00, 0xd8, 0xfe, 0xff, 0xff, 
  0x0f, 0x00, 0x00, 0x00, 0x61, 0x72, 0x69, 0x74, 0x68, 0x2e, 0x63, 0x6f, 
  0x6e, 0x73, 0x74, 0x61, 0x6e, 0x74, 0x33, 0x00, 0x01, 0x00, 0x00, 0x00, 
  0x10, 0x00, 0x00, 0x00, 0x8a, 0xff, 0xff, 0xff, 0x00, 0x00, 0x00, 0x01, 
  0x10, 0x00, 0x00, 0x00, 0x10, 0x00, 0x00, 0x00, 0x04, 0x00, 0x00, 0x00, 
  0x1c, 0x00, 0x00, 0x00, 0x10, 0xff, 0xff, 0xff, 0x0f, 0x00, 0x00, 0x00, 
  0x61, 0x72, 0x69, 0x74, 0x68, 0x2e, 0x63, 0x6f, 0x6e, 0x73, 0x74, 0x61, 
  0x6e, 0x74, 0x32, 0x00, 0x01, 0x00, 0x00, 0x00, 0x01, 0x00, 0x00, 0x00, 
  0xc2, 0xff, 0xff, 0xff, 0x00, 0x00, 0x00, 0x01, 0x10, 0x00, 0x00, 0x00, 
  0x10, 0x00, 0x00, 0x00, 0x03, 0x00, 0x00, 0x00, 0x1c, 0x00, 0x00, 0x00, 
  0x48, 0xff, 0xff, 0xff, 0x0f, 0x00, 0x00, 0x00, 0x61, 0x72, 0x69, 0x74, 
  0x68, 0x2e, 0x63, 0x6f, 0x6e, 0x73, 0x74, 0x61, 0x6e, 0x74, 0x31, 0x00, 
  0x02, 0x00, 0x00, 0x00, 0x10, 0x00, 0x00, 0x00, 0x10, 0x00, 0x00, 0x00, 
  0x00, 0x00, 0x16, 0x00, 0x18, 0x00, 0x14, 0x00, 0x00, 0x00, 0x10, 0x00, 
  0x0c, 0x00, 0x08, 0x00, 0x00, 0x00, 0x00, 0x00, 0x00, 0x00, 0x07, 0x00, 
  0x16, 0x00, 0x00, 0x00, 0x00, 0x00, 0x00, 0x01, 0x10, 0x00, 0x00, 0x00, 
  0x10, 0x00, 0x00, 0x00, 0x02, 0x00, 0x00, 0x00, 0x1c, 0x00, 0x00, 0x00, 
  0x9c, 0xff, 0xff, 0xff, 0x0e, 0x00, 0x00, 0x00, 0x61, 0x72, 0x69, 0x74, 
  0x68, 0x2e, 0x63, 0x6f, 0x6e, 0x73, 0x74, 0x61, 0x6e, 0x74, 0x00, 0x00, 
  0x02, 0x00, 0x00, 0x00, 0x01, 0x00, 0x00, 0x00, 0x10, 0x00, 0x00, 0x00, 
  0x00, 0x00, 0x16, 0x00, 0x1c, 0x00, 0x18, 0x00, 0x00, 0x00, 0x14, 0x00, 
  0x10, 0x00, 0x0c, 0x00, 0x00, 0x00, 0x00, 0x00, 0x08, 0x00, 0x07, 0x00, 
  0x16, 0x00, 0x00, 0x00, 0x00, 0x00, 0x00, 0x01, 0x14, 0x00, 0x00, 0x00, 
  0x20, 0x00, 0x00, 0x00, 0x20, 0x00, 0x00, 0x00, 0x01, 0x00, 0x00, 0x00, 
  0x40, 0x00, 0x00, 0x00, 0x02, 0x00, 0x00, 0x00, 0xff, 0xff, 0xff, 0xff, 
  0x01, 0x00, 0x00, 0x00, 0x04, 0x00, 0x04, 0x00, 0x04, 0x00, 0x00, 0x00, 
  0x21, 0x00, 0x00, 0x00, 0x73, 0x65, 0x72, 0x76, 0x69, 0x6e, 0x67, 0x5f, 
  0x64, 0x65, 0x66, 0x61, 0x75, 0x6c, 0x74, 0x5f, 0x6b, 0x65, 0x72, 0x61, 
  0x73, 0x5f, 0x74, 0x65, 0x6e, 0x73, 0x6f, 0x72, 0x5f, 0x32, 0x33, 0x3a, 
  0x30, 0x00, 0x00, 0x00, 0x02, 0x00, 0x00, 0x00, 0x01, 0x00, 0x00, 0x00, 
  0x01, 0x00, 0x00, 0x00, 0x01, 0x00, 0x00, 0x00, 0x10, 0x00, 0x00, 0x00, 
  0x0c, 0x00, 0x0c, 0x00, 0x0b, 0x00, 0x00, 0x00, 0x00, 0x00, 0x04, 0x00, 
  0x0c, 0x00, 0x00, 0x00, 0x09, 0x00, 0x00, 0x00, 0x00, 0x00, 0x00, 0x09, 
};
const unsigned int model_float_tflite_len = 3180;
