const unsigned char model_float_tflite[] = {
  0x1c, 0x00, 0x00, 0x00, 0x54, 0x46, 0x4c, 0x33, 0x14, 0x00, 0x20, 0x00, 
  0x1c, 0x00, 0x18, 0x00, 0x14, 0x00, 0x10, 0x00, 0x0c, 0x00, 0x00, 0x00, 
  0x08, 0x00, 0x04, 0x00, 0x14, 0x00, 0x00, 0x00, 0x1c, 0x00, 0x00, 0x00, 
  0x98, 0x00, 0x00, 0x00, 0xf0, 0x00, 0x00, 0x00, 0x14, 0x07, 0x00, 0x00, 
  0x24, 0x07, 0x00, 0x00, 0x08, 0x0c, 0x00, 0x00, 0x03, 0x00, 0x00, 0x00, 
  0x01, 0x00, 0x00, 0x00, 0x10, 0x00, 0x00, 0x00, 0x00, 0x00, 0x0a, 0x00, 
  0x10, 0x00, 0x0c, 0x00, 0x08, 0x00, 0x04, 0x00, 0x0a, 0x00, 0x00, 0x00, 
  0x0c, 0x00, 0x00, 0x00, 0x1c, 0x00, 0x00, 0x00, 0x3c, 0x00, 0x00, 0x00, 
  0x0f, 0x00, 0x00, 0x00, 0x73, 0x65, 0x72, 0x76, 0x69, 0x6e, 0x67, 0x5f, 
  0x64, 0x65, 0x66, 0x61, 0x75, 0x6c, 0x74, 0x00, 0x01, 0x00, 0x00, 0x00, 
  0x04, 0x00, 0x00, 0x00, 0x90, 0xff, 0xff, 0xff, 0x09, 0x00, 0x00, 0x00, 
  0x04, 0x00, 0x00, 0x00, 0x08, 0x00, 0x00, 0x00, 0x6f, 0x75, 0x74, 0x70, 
  0x75, 0x74, 0x5f, 0x30, 0x00, 0x00, 0x00, 0x00, 0x01, 0x00, 0x00, 0x00, 
  0x04, 0x00, 0x00, 0x00, 0xba, 0xf9, 0xff, 0xff, 0x04, 0x00, 0x00, 0x00, 
  0x0e, 0x00, 0x00, 0x00, 0x6b, 0x65, 0x72, 0x61, 0x73, 0x5f, 0x74, 0x65, 
  0x6e, 0x73, 0x6f, 0x72, 0x5f, 0x33, 0x00, 0x00, 0x02, 0x00, 0x00, 0x00, 
  0x34, 0x00, 0x00, 0x00, 0x04, 0x00, 0x00, 0x00, 0xdc, 0xff, 0xff, 0xff, 
  0x0c, 0x00, 0x00, 0x00, 0x04, 0x00, 0x00, 0x00, 0x13, 0x00, 0x00, 0x00, 
  0x43, 0x4f, 0x4e, 0x56, 0x45, 0x52, 0x53, 0x49, 0x4f, 0x4e, 0x5f, 0x4d, 
  0x45, 0x54, 0x41, 0x44, 0x41, 0x54, 0x41, 0x00, 0x08, 0x00, 0x0c, 0x00, 
  0x08, 0x00, 0x04, 0x00, 0x08, 0x00, 0x00, 0x00, 0x0b, 0x00, 0x00, 0x00, 
  0x04, 0x00, 0x00, 0x00, 0x13, 0x00, 0x00, 0x00, 0x6d, 0x69, 0x6e, 0x5f, 
  0x72, 0x75, 0x6e, 0x74, 0x69, 0x6d, 0x65, 0x5f, 0x76, 0x65, 0x72, 0x73, 
  0x69, 0x6f, 0x6e, 0x00, 0x0d, 0x00, 0x00, 0x00, 0x20, 0x06, 0x00, 0x00, 
  0x18, 0x06, 0x00, 0x00, 0xc8, 0x05, 0x00, 0x00, 0xb0, 0x01, 0x00, 0x00, 
  0x9c, 0x01, 0x00, 0x00, 0x4c, 0x01, 0x00, 0x00, 0xfc, 0x00, 0x00, 0x00, 
  0xac, 0x00, 0x00, 0x00, 0xa4, 0x00, 0x00, 0x00, 0x9c, 0x00, 0x00, 0x00, 
  0x94, 0x00, 0x00, 0x00, 0x74, 0x00, 0x00, 0x00, 0x04, 0x00, 0x00, 0x00, 
  0x6a, 0xfa, 0xff, 0xff, 0x04, 0x00, 0x00, 0x00, 0x60, 0x00, 0x00, 0x00, 
  0x10, 0x00, 0x00, 0x00, 0x00, 0x00, 0x00, 0x00, 0x08, 0x00, 0x0e, 0x00, 
  0x08, 0x00, 0x04, 0x00, 0x08, 0x00, 0x00, 0x00, 0x10, 0x00, 0x00, 0x00, 
  0x24, 0x00, 0x00, 0x00, 0x00, 0x00, 0x06, 0x00, 0x08, 0x00, 0x04, 0x00, 
  0x06, 0x00, 0x00, 0x00, 0x04, 0x00, 0x00, 0x00, 0x00, 0x00, 0x00, 0x00, 
  0x0c, 0x00, 0x18, 0x00, 0x14, 0x00, 0x10, 0x00, 0x0c, 0x00, 0x04, 0x00, 
  0x0c, 0x00, 0x00, 0x00, 0x81, 0x83, 0x3c, 0x81, 0xe8, 0x66, 0xe1, 0x77, 
  0x02, 0x00, 0x00, 0x00, 0x02, 0x00, 0x00, 0x00, 0x04, 0x00, 0x00, 0x00, 
  0x06, 0x00, 0x00, 0x00, 0x32, 0x2e, 0x31, 0x37, 0x2e, 0x30, 0x00, 0x00, 
  0xd6, 0xfa, 0xff, 0xff, 0x04, 0x00, 0x00, 0x00, 0x10, 0x00, 0x00, 0x00, 
  0x31, 0x2e, 0x35, 0x2e, 0x30, 0x00, 0x00, 0x00, 0x00, 0x00, 0x00, 0x00, 
  0x00, 0x00, 0x00, 0x00, 0xd8, 0xf5, 0xff, 0xff, 0xdc, 0xf5, 0xff, 0xff, 
  0xe0, 0xf5, 0xff, 0xff, 0xfe, 0xfa, 0xff, 0xff, 0x04, 0x00, 0x00, 0x00, 
  0x40, 0x00, 0x00, 0x00, 0x2f, 0xf7, 0xfb, 0x3d, 0x1c, 0x8f, 0xc6, 0xbd, 
  0x06, 0x83, 0x31, 0x3f, 0x45, 0xa9, 0x7c, 0xbc, 0xff, 0xab, 0xde, 0x3e, 
  0x46, 0x42, 0x79, 0xbe, 0x7f, 0x36, 0x91, 0x3e, 0x8c, 0x11, 0x15, 0xbf, 
  0xad, 0x55, 0xfd, 0xbe, 0x7f, 0x47, 0xf2, 0xbe, 0x0c, 0xdd, 0x7a, 0xbe, 
  0x29, 0xec, 0xa6, 0xbe, 0x8c, 0xa2, 0x76, 0xbe, 0x18, 0x0e, 0x5c, 0x3e, 
  0x36, 0x6f, 0xc6, 0xbe, 0x10, 0x4a, 0x3e, 0xbd, 0x4a, 0xfb, 0xff, 0xff, 
  0x04, 0x00, 0x00, 0x00, 0x40, 0x00, 0x00, 0x00, 0xcf, 0x4d, 0x51, 0x3f, 
  0x00, 0x00, 0x00, 0x00, 0xf0, 0x2e, 0x92, 0xb9, 0x33, 0xc2, 0x5a, 0x3f, 
  0x19, 0xf5, 0xa8, 0xbe, 0x00, 0x00, 0x00, 0x00, 0xf9, 0xb2, 0x64, 0xbe, 
  0x00, 0x00, 0x00, 0x00, 0x00, 0x00, 0x00, 0x00, 0x00, 0x00, 0x00, 0x00, 
  0x00, 0x00, 0x00, 0x00, 0x00, 0x00, 0x00, 0x00, 0x00, 0x00, 0x00, 0x00, 
  0xf9, 0x47, 0xc8, 0xbe, 0x00, 0x00, 0x00, 0x00, 0x00, 0x00, 0x00, 0x00, 
  0x96, 0xfb, 0xff, 0xff, 0x04, 0x00, 0x00, 0x00, 0x40, 0x00, 0x00, 0x00, 
  0xa6, 0xb5, 0xb6, 0x3e, 0x9c, 0x6a, 0xb5, 0x3e, 0x70, 0xe0, 0xa4, 0x3e, 
  0x3e, 0x02, 0x0a, 0xbf, 0xf5, 0xb3, 0x56, 0x3e, 0x6a, 0xc2, 0xfc, 0xbc, 
  0x5a, 0x67, 0xef, 0x3e, 0x72, 0x37, 0x88, 0xbd, 0x2b, 0x99, 0x90, 0xbe, 
  0x00, 0x00, 0x00, 0x00, 0x31, 0x11, 0x60, 0xbe, 0x00, 0x00, 0x00, 0x00, 
  0x00, 0x00, 0x00, 0x00, 0xe2, 0x1d, 0x19, 0xbd, 0xac, 0xe8, 0x80, 0x3e, 
  0xbc, 0x56, 0x2c, 0xbd, 0xe2, 0xfb, 0xff, 0xff, 0x04, 0x00, 0x00, 0x00, 
  0x04, 0x00, 0x00, 0x00, 0xbe, 0xc8, 0x60, 0xbe, 0xf2, 0xfb, 0xff, 0xff, 
  0x04, 0x00, 0x00, 0x00, 0x00, 0x04, 0x00, 0x00, 0x1a, 0x78, 0xfd, 0x3e, 
  0xa0, 0x71, 0x0a, 0x3c, 0x2e, 0xa7, 0x12, 0xbf, 0xeb, 0xba, 0x21, 0x3d, 
  0xb5, 0x30, 0x50, 0x3e, 0x1f, 0x86, 0xd3, 0x3e, 0xe7, 0x69, 0x8d, 0xbe, 
  0xc2, 0x39, 0x36, 0x3e, 0xf4, 0x3d, 0xe6, 0x3d, 0x40, 0x24, 0xe0, 0x3b, 
  0x77, 0xf3, 0x91, 0x3e, 0xd8, 0xd2, 0x1a, 0xbd, 0xc6, 0xcd, 0x42, 0xbe, 
  0x21, 0x14, 0x19, 0xbe, 0xad, 0x5b, 0x89, 0x3e, 0xa4, 0xea, 0xad, 0xbd, 
  0xf9, 0x7b, 0x1e, 0x3e, 0xe5, 0x49, 0xb5, 0x3e, 0x11, 0xae, 0x8b, 0x3c, 
  0xb0, 0x67, 0xfb, 0x3e, 0x9b, 0x1a, 0x4b, 0xbc, 0x00, 0x2a, 0xc4, 0xbd, 
  0xfe, 0x0c, 0x0c, 0xbf, 0xdc, 0x29, 0xdf, 0x3d, 0x20, 0x6d, 0x28, 0x3d, 
  0x20, 0x18, 0x60, 0xbd, 0xfb, 0x27, 0x86, 0x3e, 0xe4, 0xde, 0xa8, 0xbe, 
  0x03, 0x4d, 0x9c, 0x3e, 0x9d, 0x56, 0x2d, 0xbf, 0x98, 0x1b, 0x5b, 0x3d, 
  0xac, 0x8f, 0xa0, 0xbd, 0xdd, 0x4a, 0x3a, 0x3e, 0xa1, 0x8c, 0xdb, 0xbe, 
  0xa6, 0x30, 0x49, 0xbf, 0x1f, 0x81, 0x3a, 0x3f, 0x1c, 0x2c, 0xc5, 0xbe, 
  0x74, 0x01, 0x93, 0x3d, 0x88, 0x32, 0xf3, 0xbe, 0x1c, 0xd3, 0xd4, 0x3d, 
  0x9c, 0xab, 0x05, 0xbe, 0x89, 0xb4, 0xd6, 0x3e, 0x63, 0xb5, 0x4c, 0xbe, 
  0x61, 0x29, 0xc2, 0xbe, 0xee, 0x73, 0x2d, 0x3e, 0x45, 0xcf, 0x0a, 0x3c, 
  0xd5, 0xa2, 0xcb, 0xbe, 0x0c, 0x9b, 0x64, 0xbe, 0x2b, 0xc3, 0xd5, 0xbe, 
  0xf2, 0xab, 0x3f, 0x3e, 0x69, 0x1b, 0x93, 0x3e, 0x77, 0xce, 0x31, 0xbf, 
  0xb7, 0x6a, 0xee, 0x3e, 0xf8, 0x4d, 0x5d, 0xbd, 0x9f, 0xdc, 0x84, 0xbe, 
  0x9d, 0xa7, 0xbd, 0x3e, 0x20, 0xd7, 0x06, 0xbe, 0xc1, 0x81, 0xc5, 0x3e, 
  0x80, 0xe8, 0xcb, 0x3b, 0xee, 0x93, 0x4d, 0x3e, 0x00, 0xce, 0xb7, 0xbc, 
  0x24, 0x89, 0x56, 0x3e, 0xc1, 0x0e, 0x8c, 0x3e, 0x1f, 0x55, 0x8d, 0x3e, 
  0xb5, 0xb3, 0xa2, 0xbe, 0xf4, 0x37, 0xfd, 0x3d, 0x18, 0xd7, 0x01, 0xbf, 
  0xca, 0xdb, 0x09, 0x3f, 0x60, 0x8a, 0xf8, 0xbe, 0xa0, 0x65, 0x95, 0xbc, 
  0xa3, 0x71, 0x04, 0x3e, 0x21, 0xe0, 0xc8, 0xbe, 0xfa, 0x74, 0x46, 0x3e, 
  0xa0, 0xf7, 0xc7, 0xbc, 0x80, 0x0d, 0x6c, 0xbb, 0xdb, 0x89, 0xd6, 0xbe, 
  0xa5, 0xe6, 0xab, 0x3e, 0xe1, 0xc9, 0x4f, 0xbe, 0x41, 0x41, 0xac, 0xbe, 
  0x79, 0x41, 0xa0, 0x3e, 0x15, 0xea, 0x6c, 0xbd, 0xfd, 0x05, 0xb9, 0x3e, 
  0x8f, 0xae, 0x80, 0xbe, 0x99, 0x84, 0xf1, 0xbd, 0x3e, 0x6d, 0xca, 0x3e, 
  0x2e, 0xef, 0xc9, 0xbe, 0x75, 0xc6, 0x38, 0x3c, 0xc8, 0xa1, 0x01, 0xbd, 
  0x2a, 0xde, 0x46, 0x3e, 0xa4, 0x50, 0xa7, 0x3d, 0xb6, 0x1d, 0x27, 0x3e, 
  0xa7, 0xee, 0x7a, 0xbe, 0x81, 0x25, 0x51, 0xbe, 0x19, 0x79, 0xa9, 0x3d, 
  0xd5, 0xcd, 0x62, 0xbe, 0xb8, 0xfd, 0xa0, 0xbd, 0xf5, 0x95, 0xf6, 0x3e, 
  0xb4, 0xb3, 0xdf, 0x3d, 0x3c, 0xf2, 0xa1, 0xbe, 0x6b, 0x8f, 0x18, 0x3f, 
  0xbb, 0xde, 0x06, 0xbe, 0x62, 0xf0, 0x71, 0x3e, 0x60, 0x43, 0xfe, 0xbe, 
  0x9c, 0x84, 0xdb, 0xbd, 0x63, 0xaa, 0xc9, 0x3e, 0xf5, 0xe0, 0x81, 0x3e, 
  0x00, 0xc7, 0x7a, 0x3d, 0xfe, 0x3a, 0x86, 0xbe, 0x2d, 0x0e, 0xc4, 0xbe, 
  0x22, 0x96, 0x4c, 0xbe, 0x02, 0x2c, 0x32, 0x3e, 0xd0, 0x6b, 0x94, 0x3c, 
  0x25, 0x57, 0xa7, 0xbe, 0x36, 0x74, 0x1c, 0xbe, 0x39, 0x97, 0x9b, 0x3d, 
  0xf7, 0x81, 0x13, 0x3d, 0x31, 0x3c, 0x90, 0xbd, 0x91, 0x0a, 0x98, 0x3e, 
  0xa6, 0x0c, 0x12, 0x3e, 0xd0, 0x1b, 0xfb, 0xbd, 0xed, 0xa7, 0xcc, 0x3e, 
  0x2c, 0x9e, 0xf3, 0xbd, 0x12, 0xd8, 0x37, 0xbe, 0x53, 0x17, 0x89, 0x3e, 
  0x72, 0xd0, 0xd5, 0xbe, 0xb0, 0xa7, 0x80, 0x3d, 0xe0, 0xb8, 0x38, 0x3c, 
  0xb0, 0x25, 0xc8, 0xbe, 0x60, 0xdc, 0xbf, 0xbe, 0x5d, 0xdc, 0x6c, 0xbe, 
  0x9f, 0x56, 0x07, 0xba, 0x22, 0x5e, 0xc2, 0x3c, 0xc3, 0xd3, 0x28, 0x3e, 
  0x3c, 0x5d, 0xe6, 0x3d, 0xe3, 0x7c, 0x82, 0x3e, 0x20, 0x1f, 0xee, 0x3c, 
  0x82, 0xd0, 0x25, 0x3e, 0xe6, 0x39, 0xaa, 0xbe, 0x55, 0x2a, 0xcb, 0x3e, 
  0x79, 0x3b, 0xc0, 0xbe, 0xc0, 0xa1, 0x83, 0x3d, 0xca, 0xa0, 0xca, 0x3e, 
  0xea, 0xb4, 0xba, 0xbe, 0x1b, 0xd6, 0x83, 0x3e, 0xc6, 0x16, 0x8e, 0xbe, 
  0x08, 0x77, 0xd6, 0xbe, 0xfe, 0x63, 0x09, 0x3e, 0x30, 0x4e, 0x85, 0x3c, 
  0xa9, 0x22, 0xc1, 0xbe, 0x00, 0x88, 0x1c, 0xba, 0xc0, 0x69, 0x23, 0x3c, 
  0x30, 0x8f, 0x93, 0xbc, 0x1c, 0xf4, 0xe7, 0x3d, 0x2c, 0x38, 0xec, 0x3d, 
  0x55, 0xbb, 0xc0, 0xbe, 0x3d, 0x59, 0x81, 0xbe, 0x21, 0x0d, 0xa4, 0xbe, 
  0xbc, 0x51, 0xf0, 0x3d, 0x97, 0xc0, 0xce, 0xbe, 0x42, 0x65, 0x73, 0x3e, 
  0x12, 0xd1, 0x85, 0xbd, 0x94, 0xa8, 0xcc, 0x3d, 0x5f, 0x78, 0x1e, 0x3e, 
  0x76, 0xe1, 0x17, 0xbe, 0x4a, 0x2b, 0x08, 0xbe, 0x83, 0x8c, 0xd1, 0x3e, 
  0xbf, 0xab, 0x42, 0x3e, 0xa2, 0xd2, 0x00, 0x3e, 0xb6, 0x45, 0x1c, 0x3e, 
  0xf4, 0x12, 0xce, 0x3d, 0xbc, 0xe8, 0x21, 0xbe, 0xa2, 0x40, 0x9f, 0xbe, 
  0x92, 0x8d, 0x64, 0x3e, 0xd0, 0x5b, 0xae, 0xbd, 0x13, 0x65, 0xc6, 0x3e, 
  0x62, 0xf3, 0x6a, 0x3e, 0x9c, 0x60, 0x65, 0xbe, 0xba, 0x72, 0x08, 0xbe, 
  0x51, 0x26, 0x9d, 0xbe, 0x3c, 0x07, 0x05, 0xbe, 0xc3, 0x3a, 0xa0, 0x3e, 
  0x32, 0x33, 0x3b, 0x3e, 0x1b, 0x8d, 0xd4, 0xbe, 0xfa, 0xb4, 0x59, 0x3e, 
  0x4f, 0x21, 0x80, 0x3e, 0xc7, 0x07, 0xb5, 0x3e, 0xa1, 0x15, 0xcb, 0xbe, 
  0xc2, 0xed, 0x12, 0xbe, 0x86, 0x85, 0x27, 0xbe, 0x50, 0x0d, 0x90, 0xbd, 
  0xea, 0x25, 0xca, 0xbe, 0x00, 0x5d, 0xe5, 0xba, 0x20, 0x78, 0x42, 0x3d, 
  0x94, 0x71, 0xdc, 0x3d, 0xec, 0xe8, 0xd9, 0x3d, 0x12, 0x55, 0xcc, 0xbe, 
  0xda, 0xba, 0x95, 0xbe, 0x88, 0xb9, 0x2d, 0x3d, 0x1b, 0x6b, 0xcd, 0xbe, 
  0xab, 0xd4, 0x46, 0xbe, 0x94, 0x38, 0xdc, 0xbd, 0xd8, 0x7d, 0x75, 0x3d, 
  0x31, 0xc1, 0xab, 0xbe, 0x54, 0x84, 0xbe, 0x3d, 0x8b, 0xcf, 0xa7, 0x3e, 
  0x44, 0xef, 0x91, 0xbe, 0xea, 0xc7, 0x71, 0x3e, 0x1f, 0xd4, 0x94, 0x3e, 
  0xcb, 0x84, 0x80, 0xbe, 0xb0, 0x95, 0xba, 0xbd, 0x08, 0x45, 0xd1, 0x3e, 
  0x08, 0xfc, 0x13, 0x3e, 0xef, 0x3d, 0xc4, 0xbe, 0xbb, 0x18, 0xa2, 0xbe, 
  0xe5, 0x96, 0xc2, 0xbe, 0xa1, 0x66, 0xb9, 0x3e, 0xd0, 0x14, 0x0c, 0xbe, 
  0xc0, 0xd8, 0x4c, 0x3d, 0x20, 0xfd, 0x09, 0x3c, 0x73, 0x46, 0x8d, 0x3e, 
  0x1c, 0xf0, 0x99, 0x3d, 0xad, 0xa3, 0x0d, 0xbf, 0xd1, 0xeb, 0xd0, 0x3e, 
  0xd0, 0xfe, 0x9e, 0xbe, 0x8b, 0x73, 0x80, 0x3e, 0x54, 0x89, 0x88, 0xbe, 
  0x1e, 0x08, 0x79, 0x3e, 0x4e, 0x8b, 0xc7, 0x3e, 0x25, 0xfc, 0x3b, 0x3e, 
  0xac, 0xd5, 0x8c, 0x3d, 0xed, 0x75, 0x65, 0x3d, 0xc0, 0xa4, 0x74, 0xbc, 
  0x5a, 0x56, 0x41, 0xbe, 0x1a, 0x63, 0x54, 0x3e, 0xe4, 0xb4, 0xc5, 0xbe, 
  0x1e, 0xc5, 0x79, 0xbe, 0x91, 0x60, 0x9f, 0x3e, 0x7c, 0x1a, 0xaa, 0x3d, 
  0xe0, 0x35, 0x6b, 0x3c, 0xf8, 0xe2, 0xf9, 0xbd, 0x59, 0x71, 0x1a, 0x3e, 
  0xe2, 0xae, 0xa8, 0xbe, 0xe8, 0x79, 0x98, 0xbe, 0xf4, 0x4e, 0xc3, 0xbd, 
  0x07, 0x12, 0x3f, 0x3e, 0x1e, 0x20, 0x95, 0xbe, 0xd5, 0xc0, 0xd5, 0x3d, 
  0xeb, 0xf5, 0xc9, 0xbe, 0x4c, 0x60, 0xbc, 0x3d, 0x07, 0x3a, 0x8a, 0xbe, 
  0xc9, 0xab, 0xa3, 0x3e, 0x77, 0x09, 0x75, 0xbe, 0xf2, 0x9b, 0x23, 0x3e, 
  0xd6, 0xc3, 0xc9, 0x3e, 0x2b, 0xa0, 0x81, 0x3e, 0x04, 0xeb, 0xb3, 0xbd, 
  0x00, 0x00, 0x06, 0x00, 0x08, 0x00, 0x04, 0x00, 0x06, 0x00, 0x00, 0x00, 
  0x04, 0x00, 0x00, 0x00, 0x40, 0x00, 0x00, 0x00, 0x40, 0x40, 0x8e, 0xbf, 
  0xa1, 0xe0, 0x96, 0x3f, 0x89, 0xdb, 0x4c, 0xbf, 0xc4, 0xf9, 0x0a, 0x40, 
  0x65, 0x59, 0x6e, 0xbf, 0x2b, 0xf9, 0xa2, 0x3e, 0xf6, 0x7c, 0x97, 0x3f, 
  0x8b, 0xe7, 0xaa, 0x3e, 0xab, 0x57, 0xc9, 0x3e, 0x58, 0x05, 0x90, 0x3d, 
  0x47, 0x52, 0xa2, 0x3e, 0x74, 0xa9, 0x45, 0x3e, 0x80, 0xc8, 0xc2, 0xbc, 
  0x96, 0x33, 0x31, 0xbf, 0x42, 0x04, 0xc4, 0xbe, 0x37, 0x0d, 0xca, 0x3d, 
  0x38, 0xfb, 0xff, 0xff, 0x3c, 0xfb, 0xff, 0xff, 0x0f, 0x00, 0x00, 0x00, 
  0x4d, 0x4c, 0x49, 0x52, 0x20, 0x43, 0x6f, 0x6e, 0x76, 0x65, 0x72, 0x74, 
  0x65, 0x64, 0x2e, 0x00, 0x01, 0x00, 0x00, 0x00, 0x14, 0x00, 0x00, 0x00, 
  0x00, 0x00, 0x0e, 0x00, 0x18, 0x00, 0x14, 0x00, 0x10, 0x00, 0x0c, 0x00, 
  0x08, 0x00, 0x04, 0x00, 0x0e, 0x00, 0x00, 0x00, 0x14, 0x00, 0x00, 0x00, 
  0x1c, 0x00, 0x00, 0x00, 0xd8, 0x00, 0x00, 0x00, 0xdc, 0x00, 0x00, 0x00, 
  0xe0, 0x00, 0x00, 0x00, 0x04, 0x00, 0x00, 0x00, 0x6d, 0x61, 0x69, 0x6e, 
  0x00, 0x00, 0x00, 0x00, 0x03, 0x00, 0x00, 0x00, 0x80, 0x00, 0x00, 0x00, 
  0x38, 0x00, 0x00, 0x00, 0x04, 0x00, 0x00, 0x00, 0x9a, 0xff, 0xff, 0xff, 
  0x10, 0x00, 0x00, 0x00, 0x00, 0x00, 0x00, 0x08, 0x0c, 0x00, 0x00, 0x00, 
  0x10, 0x00, 0x00, 0x00, 0xb4, 0xfb, 0xff, 0xff, 0x01, 0x00, 0x00, 0x00, 
  0x09, 0x00, 0x00, 0x00, 0x03, 0x00, 0x00, 0x00, 0x08, 0x00, 0x00, 0x00, 
  0x01, 0x00, 0x00, 0x00, 0x03, 0x00, 0x00, 0x00, 0xca, 0xff, 0xff, 0xff, 
  0x10, 0x00, 0x00, 0x00, 0x00, 0x00, 0x00, 0x08, 0x10, 0x00, 0x00, 0x00, 
  0x14, 0x00, 0x00, 0x00, 0xba, 0xff, 0xff, 0xff, 0x00, 0x00, 0x00, 0x01, 
  0x01, 0x00, 0x00, 0x00, 0x08, 0x00, 0x00, 0x00, 0x03, 0x00, 0x00, 0x00, 
  0x07, 0x00, 0x00, 0x00, 0x02, 0x00, 0x00, 0x00, 0x04, 0x00, 0x00, 0x00, 
  0x00, 0x00, 0x0e, 0x00, 0x16, 0x00, 0x00, 0x00, 0x10, 0x00, 0x0c, 0x00, 
  0x0b, 0x00, 0x04, 0x00, 0x0e, 0x00, 0x00, 0x00, 0x18, 0x00, 0x00, 0x00, 
  0x00, 0x00, 0x00, 0x08, 0x18, 0x00, 0x00, 0x00, 0x1c, 0x00, 0x00, 0x00, 
  0x00, 0x00, 0x06, 0x00, 0x08, 0x00, 0x07, 0x00, 0x06, 0x00, 0x00, 0x00, 
  0x00, 0x00, 0x00, 0x01, 0x01, 0x00, 0x00, 0x00, 0x07, 0x00, 0x00, 0x00, 
  0x03, 0x00, 0x00, 0x00, 0x00, 0x00, 0x00, 0x00, 0x06, 0x00, 0x00, 0x00, 
  0x05, 0x00, 0x00, 0x00, 0x01, 0x00, 0x00, 0x00, 0x09, 0x00, 0x00, 0x00, 
  0x01, 0x00, 0x00, 0x00, 0x00, 0x00, 0x00, 0x00, 0x0a, 0x00, 0x00, 0x00, 
  0x74, 0x03, 0x00, 0x00, 0x1c, 0x03, 0x00, 0x00, 0xc4, 0x02, 0x00, 0x00, 
  0x88, 0x02, 0x00, 0x00, 0x4c, 0x02, 0x00, 0x00, 0xf0, 0x01, 0x00, 0x00, 
  0xa0, 0x01, 0x00, 0x00, 0x00, 0x01, 0x00, 0x00, 0x60, 0x00, 0x00, 0x00, 
  0x04, 0x00, 0x00, 0x00, 0xca, 0xfc, 0xff, 0xff, 0x00, 0x00, 0x00, 0x01, 
  0x14, 0x00, 0x00, 0x00, 0x1c, 0x00, 0x00, 0x00, 0x1c, 0x00, 0x00, 0x00, 
  0x0a, 0x00, 0x00, 0x00, 0x34, 0x00, 0x00, 0x00, 0x02, 0x00, 0x00, 0x00, 
  0xff, 0xff, 0xff, 0xff, 0x01, 0x00, 0x00, 0x00, 0xb4, 0xfc, 0xff, 0xff, 
  0x1b, 0x00, 0x00, 0x00, 0x53, 0x74, 0x61, 0x74, 0x65, 0x66, 0x75, 0x6c, 
  0x50, 0x61, 0x72, 0x74, 0x69, 0x74, 0x69, 0x6f, 0x6e, 0x65, 0x64, 0x43, 
  0x61, 0x6c, 0x6c, 0x5f, 0x31, 0x3a, 0x30, 0x00, 0x02, 0x00, 0x00, 0x00, 
  0x01, 0x00, 0x00, 0x00, 0x01, 0x00, 0x00, 0x00, 0x22, 0xfd, 0xff, 0xff, 
  0x00, 0x00, 0x00, 0x01, 0x14, 0x00, 0x00, 0x00, 0x1c, 0x00, 0x00, 0x00, 
  0x1c, 0x00, 0x00, 0x00, 0x09, 0x00, 0x00, 0x00, 0x78, 0x00, 0x00, 0x00, 
  0x02, 0x00, 0x00, 0x00, 0xff, 0xff, 0xff, 0xff, 0x10, 0x00, 0x00, 0x00, 
  0x0c, 0xfd, 0xff, 0xff, 0x5e, 0x00, 0x00, 0x00, 0x73, 0x65, 0x71, 0x75, 
  0x65, 0x6e, 0x74, 0x69, 0x61, 0x6c, 0x5f, 0x31, 0x5f, 0x31, 0x2f, 0x64, 
  0x65, 0x6e, 0x73, 0x65, 0x5f, 0x33, 0x5f, 0x31, 0x2f, 0x4d, 0x61, 0x74, 
  0x4d, 0x75, 0x6c, 0x3b, 0x73, 0x65, 0x71, 0x75, 0x65, 0x6e, 0x74, 0x69, 
  0x61, 0x6c, 0x5f, 0x31, 0x5f, 0x31, 0x2f, 0x64, 0x65, 0x6e, 0x73, 0x65, 
  0x5f, 0x33, 0x5f, 0x31, 0x2f, 0x52, 0x65, 0x6c, 0x75, 0x3b, 0x73, 0x65, 
  0x71, 0x75, 0x65, 0x6e, 0x74, 0x69, 0x61, 0x6c, 0x5f, 0x31, 0x5f, 0x31, 
  0x2f, 0x64, 0x65, 0x6e, 0x73, 0x65, 0x5f, 0x33, 0x5f, 0x31, 0x2f, 0x42, 
  0x69, 0x61, 0x73, 0x41, 0x64, 0x64, 0x00, 0x00, 0x02, 0x00, 0x00, 0x00, 
  0x01, 0x00, 0x00, 0x00, 0x10, 0x00, 0x00, 0x00, 0xbe, 0xfd, 0xff, 0xff, 
  0x00, 0x00, 0x00, 0x01, 0x14, 0x00, 0x00, 0x00, 0x1c, 0x00, 0x00, 0x00, 
  0x1c, 0x00, 0x00, 0x00, 0x08, 0x00, 0x00, 0x00, 0x78, 0x00, 0x00, 0x00, 
  0x02, 0x00, 0x00, 0x00, 0xff, 0xff, 0xff, 0xff, 0x10, 0x00, 0x00, 0x00, 
  0xa8, 0xfd, 0xff, 0xff, 0x5e, 0x00, 0x00, 0x00, 0x73, 0x65, 0x71, 0x75, 
  0x65, 0x6e, 0x74, 0x69, 0x61, 0x6c, 0x5f, 0x31, 0x5f, 0x31, 0x2f, 0x64, 
  0x65, 0x6e, 0x73, 0x65, 0x5f, 0x32, 0x5f, 0x31, 0x2f, 0x4d, 0x61, 0x74, 
  0x4d, 0x75, 0x6c, 0x3b, 0x73, 0x65, 0x71, 0x75, 0x65, 0x6e, 0x74, 0x69, 
  0x61, 0x6c, 0x5f, 0x31, 0x5f, 0x31, 0x2f, 0x64, 0x65, 0x6e, 0x73, 0x65, 
  0x5f, 0x32, 0x5f, 0x31, 0x2f, 0x52, 0x65, 0x6c, 0x75, 0x3b, 0x73, 0x65, 
  0x71, 0x75, 0x65, 0x6e, 0x74, 0x69, 0x61, 0x6c, 0x5f, 0x31, 0x5f, 0x31, 
  0x2f, 0x64, 0x65, 0x6e, 0x73, 0x65, 0x5f, 0x32, 0x5f, 0x31, 0x2f, 0x42, 
  0x69, 0x61, 0x73, 0x41, 0x64, 0x64, 0x00, 0x00, 0x02, 0x00, 0x00, 0x00, 
  0x01, 0x00, 0x00, 0x00, 0x10, 0x00, 0x00, 0x00, 0xae, 0xfe, 0xff, 0xff, 
  0x00, 0x00, 0x00, 0x01, 0x10, 0x00, 0x00, 0x00, 0x10, 0x00, 0x00, 0x00, 
  0x07, 0x00, 0x00, 0x00, 0x2c, 0x00, 0x00, 0x00, 0x34, 0xfe, 0xff, 0xff, 
  0x1f, 0x00, 0x00, 0x00, 0x73, 0x65, 0x71, 0x75, 0x65, 0x6e, 0x74, 0x69, 
  0x61, 0x6c, 0x5f, 0x31, 0x5f, 0x31, 0x2f, 0x64, 0x65, 0x6e, 0x73, 0x65, 
  0x5f, 0x32, 0x5f, 0x31, 0x2f, 0x4d, 0x61, 0x74, 0x4d, 0x75, 0x6c, 0x00, 
  0x02, 0x00, 0x00, 0x00, 0x10, 0x00, 0x00, 0x00, 0x01, 0x00, 0x00, 0x00, 
  0xfa, 0xfe, 0xff, 0xff, 0x00, 0x00, 0x00, 0x01, 0x10, 0x00, 0x00, 0x00, 
  0x10, 0x00, 0x00, 0x00, 0x06, 0x00, 0x00, 0x00, 0x3c, 0x00, 0x00, 0x00, 
  0x80, 0xfe, 0xff, 0xff, 0x2f, 0x00, 0x00, 0x00, 0x73, 0x65, 0x71, 0x75, 
  0x65, 0x6e, 0x74, 0x69, 0x61, 0x6c, 0x5f, 0x31, 0x5f, 0x31, 0x2f, 0x64, 
  0x65, 0x6e, 0x73, 0x65, 0x5f, 0x32, 0x5f, 0x31, 0x2f, 0x42, 0x69, 0x61, 
  0x73, 0x41, 0x64, 0x64, 0x2f, 0x52, 0x65, 0x61, 0x64, 0x56, 0x61, 0x72, 
  0x69, 0x61, 0x62, 0x6c, 0x65, 0x4f, 0x70, 0x00, 0x01, 0x00, 0x00, 0x00, 
  0x10, 0x00, 0x00, 0x00, 0x52, 0xff, 0xff, 0xff, 0x00, 0x00, 0x00, 0x01, 
  0x10, 0x00, 0x00, 0x00, 0x10, 0x00, 0x00, 0x00, 0x05, 0x00, 0x00, 0x00, 
  0x1c, 0x00, 0x00, 0x00, 0xd8, 0xfe, 0xff, 0xff, 0x0f, 0x00, 0x00, 0x00, 
  0x61, 0x72, 0x69, 0x74, 0x68, 0x2e, 0x63, 0x6f, 0x6e, 0x73, 0x74, 0x61, 
  0x6e, 0x74, 0x33, 0x00, 0x01, 0x00, 0x00, 0x00, 0x10, 0x00, 0x00, 0x00, 
  0x8a, 0xff, 0xff, 0xff, 0x00, 0x00, 0x00, 0x01, 0x10, 0x00, 0x00, 0x00, 
  0x10, 0x00, 0x00, 0x00, 0x04, 0x00, 0x00, 0x00, 0x1c, 0x00, 0x00, 0x00, 
  0x10, 0xff, 0xff, 0xff, 0x0f, 0x00, 0x00, 0x00, 0x61, 0x72, 0x69, 0x74, 
  0x68, 0x2e, 0x63, 0x6f, 0x6e, 0x73, 0x74, 0x61, 0x6e, 0x74, 0x32, 0x00, 
  0x01, 0x00, 0x00, 0x00, 0x01, 0x00, 0x00, 0x00, 0xc2, 0xff, 0xff, 0xff, 
  0x00, 0x00, 0x00, 0x01, 0x10, 0x00, 0x00, 0x00, 0x10, 0x00, 0x00, 0x00, 
  0x03, 0x00, 0x00, 0x00, 0x1c, 0x00, 0x00, 0x00, 0x48, 0xff, 0xff, 0xff, 
  0x0f, 0x00, 0x00, 0x00, 0x61, 0x72, 0x69, 0x74, 0x68, 0x2e, 0x63, 0x6f, 
  0x6e, 0x73, 0x74, 0x61, 0x6e, 0x74, 0x31, 0x00, 0x02, 0x00, 0x00, 0x00, 
  0x10, 0x00, 0x00, 0x00, 0x10, 0x00, 0x00, 0x00, 0x00, 0x00, 0x16, 0x00, 
  0x18, 0x00, 0x14, 0x00, 0x00, 0x00, 0x10, 0x00, 0x0c, 0x00, 0x08, 0x00, 
  0x00, 0x00, 0x00, 0x00, 0x00, 0x00, 0x07, 0x00, 0x16, 0x00, 0x00, 0x00, 
  0x00, 0x00, 0x00, 0x01, 0x10, 0x00, 0x00, 0x00, 0x10, 0x00, 0x00, 0x00, 
  0x02, 0x00, 0x00, 0x00, 0x1c, 0x00, 0x00, 0x00, 0x9c, 0xff, 0xff, 0xff, 
  0x0e, 0x00, 0x00, 0x00, 0x61, 0x72, 0x69, 0x74, 0x68, 0x2e, 0x63, 0x6f, 
  0x6e, 0x73, 0x74, 0x61, 0x6e, 0x74, 0x00, 0x00, 0x02, 0x00, 0x00, 0x00, 
  0x01, 0x00, 0x00, 0x00, 0x10, 0x00, 0x00, 0x00, 0x00, 0x00, 0x16, 0x00, 
  0x1c, 0x00, 0x18, 0x00, 0x00, 0x00, 0x14, 0x00, 0x10, 0x00, 0x0c, 0x00, 
  0x00, 0x00, 0x00, 0x00, 0x08, 0x00, 0x07, 0x00, 0x16, 0x00, 0x00, 0x00, 
  0x00, 0x00, 0x00, 0x01, 0x14, 0x00, 0x00, 0x00, 0x20, 0x00, 0x00, 0x00, 
  0x20, 0x00, 0x00, 0x00, 0x01, 0x00, 0x00, 0x00, 0x40, 0x00, 0x00, 0x00, 
  0x02, 0x00, 0x00, 0x00, 0xff, 0xff, 0xff, 0xff, 0x01, 0x00, 0x00, 0x00, 
  0x04, 0x00, 0x04, 0x00, 0x04, 0x00, 0x00, 0x00, 0x20, 0x00, 0x00, 0x00, 
  0x73, 0x65, 0x72, 0x76, 0x69, 0x6e, 0x67, 0x5f, 0x64, 0x65, 0x66, 0x61, 
  0x75, 0x6c, 0x74, 0x5f, 0x6b, 0x65, 0x72, 0x61, 0x73, 0x5f, 0x74, 0x65, 
  0x6e, 0x73, 0x6f, 0x72, 0x5f, 0x33, 0x3a, 0x30, 0x00, 0x00, 0x00, 0x00, 
  0x02, 0x00, 0x00, 0x00, 0x01, 0x00, 0x00, 0x00, 0x01, 0x00, 0x00, 0x00, 
  0x01, 0x00, 0x00, 0x00, 0x10, 0x00, 0x00, 0x00, 0x0c, 0x00, 0x0c, 0x00, 
  0x0b, 0x00, 0x00, 0x00, 0x00, 0x00, 0x04, 0x00, 0x0c, 0x00, 0x00, 0x00, 
  0x09, 0x00, 0x00, 0x00, 0x00, 0x00, 0x00, 0x09, 
};
const unsigned int model_float_tflite_len = 3164;
